Ġforks
ĠSEC
Ġcosmetics
Ġblanket
ello
ĠINTER
Ġcompliance
77
Ġcorrect
Ġdeter
Ġmode
Ġtoes
Ġattend
structed
fd
Ġtransient
ro
Ġ1890
ĠOF
Ġhitting
Saint
aster
Ġinverse
Ġmistake
Typically
ĠTayyip
Euro
ĠTBA
Ġ216
ĠXavier
ĠLED
Ġknot
master
ĠGoing
ĠACL
gie
Ġaxe
athom
Ġacquired
Ġhavens
shore
Ġfrequ
annot
Ġinadvert
memory
orc
ĠVilla
OVA
ĠRichards
Ġcereal
Residents
ĠVortex
WARNING
ĠRuins
Ġimg
æ³
Ġmillion
Ġoften
ĠBott
ĠClearly
ĠPLAY
Ġknees
Ġjungle
Ġtownship
ĠChamp
ĠCounty
Ġemission
och
ĠMartinez
Ġhobby
ĠWhit
Ġinnov
ĠEduc
ĠCab
andy
ioned
Ġalienated
Every
648
DIS
patient
Ġrespons
ĠFIGHT
ĠDimension
ĠMedals
Plex
abilia
Critics
ĠThird
beam
ĠDiscover
ĠKrishna
recated
asury
Ġdy
oked
prof
igraph
mods
angelo
ĠSuzuki
Ġscholars
ĠArrest
Ġhy
ĠHaskell
Li
Ġlinux
Ġallocation
Ġdarkness
Ġharming
Ġsolves
irection
ĠPrev
Ġpassions
Ġlaughable
assy
steam
Ġcherry
Ġrelig
Both
Ġrestrain
Ġdeclares
Ġthan
ĠYard
Ġreceipts
Ġus
B
Ġdeep
uminum
Was
bers
Ġmag
Ġapplicable
Ġheaded
school
Ġdates
Ġcohort
revolution
Ġneuroscience
MW
Ġwiping
Ġproced
Ġba
ĠeBook
Ġbeauty
Ġreveal
Ġunhappy
ĠDeg
Ġgorilla
ĠJACK
inv
Ġapprovals
Ġshelling
reed
Ġushered
ĠMF
Ġextraordinary
ĠConvers
rentices
umping
SCP
GUI
Ġsand
Executive
Ġbrink
chains
Ġgeographic
And
visory
ĠReleases
ĠBayer
Ġlobbied
search
Ġ156
Ġblunt
ryn
ĠKens
Ġcleaned
phans
ĠHA
sufficient
Ġ355
Ġsubtitles
998
spirit
effic
Ġenhancement
ĠConquer
ĠSamp
Ġmarble
Ġstirred
TF
WATCH
ady
Ġfood
E
Ġlookout
Ġfib
redo
abulary
Jesus
Veh
ĠParish
Ġpractically
pre
Ġcollateral
Ġrevision
243
ĠMouse
Ġanalyse
ĠRugby
Ġintric
ĠDays
Ġpeculiar
Ġoverw
Select
ĠLudwig
parent
ĠMk
Ġrift
ĠTick
Ġwithdraw
anti
otomy
Ġunfamiliar
ĠPrin
Ġencl
Pie
216
Ġfacts
Ġneedle
Ġfamilies
ĠBrian
aid
Ġbowel
Ġstances
Ġcelebrity
treatment
ĠAn
%,
Parameter
Ġfirepower
Ġguru
Stock
Ġneurological
Ġpresented
DA
Ġdepression
ruct
due
Ġdaytime
choice
ENC
ĠTwitch
MED
Ġdoi
ĠBAL
Ġsocialists
ocked
hiro
ĠOTHER
VIDIA
enstein
Ġcoh
ĠExtra
ĠTen
ĠDavidson
Ġchasing
ĠCatalan
IPS
ĠSS
Ġromance
Ġsurrender
Ġunity
veh
gang
Ġagent
Ġchrome
iver
ĠManual
ands
istrate
Front
Ġau
Ġlogos
Ġcontextual
783
Ġindoctr
Ġ77
Ġcoordination
ĠWriter
ĠApplications
Adding
iovascular
ĠWinn
Ġallegations
Ġwob
Ġrarely
Ġsoils
iour
Ott
Ġphysic
akia
Ġproport
Ġads
Ġdealt
Ġdrifting
iths
ĠCeltics
ĠFactor
Ġadvances
ussie
starter
Ġeld
ĠHaku
Ġinitialize
Ġflashed
reath
ĠBachelor
İĭ
Wow
ŀ
ĠMadness
Clar
lon
ĠBrenda
Ġcaliber
Ġcleaning
Ġbailout
Run
ilated
ĠJPEG
Ġtumors
Ġ"+
Ġdreaded
ĠCompared
182
Ġwheel
Ġupl
aman
ĠSquad
ĠSolid
Ġhoops
Universal
ese
ighth
anza
ĠAngus
Ġmortar
ĠLia
Ġside
Ġdes
130
SO
ĠJD
Ġqueries
illegal
Ġeconomical
Ing
Ġ"$:/
ĠGame
Ġnoodles
ĠBreath
urized
Own
Ġdetects
ronics
Ġinactive
Ġmanifests
Ġuniforms
ĠRussia
Ġacad
Ġcrowds
Ġshuts
ĠABV
Ġdiscontent
Ġredund
Ġwouldn
ĠSpecialist
auntlet
Ġthermal
Ġcardinal
Ġmuc
Ġjudges
Ġyouth
anka
ĠCommunication
Ġprescribing
ĠDock
Ġremembered
launch
1987
ĠTelevision
complex
Ġincompetent
fleet
Ġresistant
processing
ĠJewel
Ġfluffy
oreal
Ġadvoc
ay
Ġshameful
é¾įå¥ĳå£«
balls
sn
ĠDamien
Ġ7000
Ġtalked
ishment
Ġovercrowd
Ġbicycles
Ġrepo
Ġrecomb
Ġtoggle
Ġ06
bia
ĠTurns
ipal
Legend
Ġaback
oglu
Ġbelt
Ġtraps
éĸ
Ġplumbing
Ġneedy
Ġresemb
Ġballet
Ġaffinity
Ġ{:
voc
Rail
Ġsignific
panic
Ġanswering
iano
ĠOlsen
ĠBenef
stim
sorry
ĠRC
ashing
Ġunnamed
Facebook
overty
Ġ1911
ĠAppropri
Ġstraw
ãģĨ
Template
erves
Ġfencing
Ġsway
Ġregardless
LED
Ġinex
Ġdecisions
Ġabandoning
ĠPART
Ġcoax
Ġterminology
Ġwhopping
Ġprophet
Ġinvoice
iah
Ġutilities
arate
Ġdeposited
Ġfringe
Ġrhythms
ĠAbilities
Ġaudience
Ġtranslated
Ġstabbed
ĠPartnership
Ġmarched
ĠSlater
ĠGale
Ġtown
Ġkios
undred
ision
)...
ĠTBD
Ġtwo
Ġruled
adden
atellite
umann
Ġalum
ĠCodes
aghd
Ġversus
ĠANGEL
Ġpursue
roth
edIn
bc
Ġescalating
Ġfunnel
Ġcommon
Ġcirculation
Ġpledge
Ġfruit
Ġgunfire
ĠMelanie
178
825
BTC
"/>
ink
ĠMORE
ĠMount
ĠIan
Ġcity
EG
ĠCarbon
Ġtrimmed
arya
ablished
Ġmouths
sighted
Ġreflections
ĠZer
mont
oiler
ĠGir
Ġpopular
Ġprep
230
Ġpushing
Ġregained
Ġham
ansk
Ġstarved
ĠFEMA
Ġbuses
ĠAugustus
agame
DT
ĠIc
Ġclearly
Ġ249
Ġinvestigating
Ġfirmly
ĠWeird
Else
ana
mail
West
ĠAnne
ĠPlaza
ĠChow
Ġcafes
More
ĠWorst
iban
Ġfooth
=~
ĠAcc
Ġtransform
Ġhighlight
Ġsettlement
uation
Ġtooth
ua
ato
band
Ġbreed
Ġwhites
ĠEmploy
Ġprimaries
Ġguarantees
Ã¦
inker
ihar
ĠNeptune
Ġ1919
ĠCarolyn
ĠComes
Jeremy
Ġequations
Ġdisob
ĠFle
Ġaffecting
ĠBernstein
WIND
Ġtranspl
Ġded
Ġarrog
Ġpecul
ackets
ither
Ġsynonymous
ĠCow
Ġdefeats
ĠHaving
ĠAnimals
ĠCar
Ġprogressives
ĠJazeera
Ġobservation
cry
Ġdependency
Ġgeological
Ġgod
Ġsins
ĠDisabled
ĠGHC
oaded
Ġsubsidized
ĠBohem
ĠPers
Ġfail
Detailed
Ġcondem
ĠOx
Ġfundamentalist
iversal
Latin
ĠWillie
igun
Ġ[];
Loader
Ġbasal
Ġlocate
Ġtor
iverse
Ġprofound
ĠBills
iol
FS
Ġpunish
Ġregistry
iking
Ġchallenging
igl
ĠCU
ĠJustin
ĠProvider
ains
code
Ġeloqu
Ġraven
Sam
GV
ĠDifference
ĠPor
Absolutely
AW
Ġcrashed
ĠConclusion
ĠJOHN
ĠSleep
ogly
Ġ399
Ġic
dates
Whit
avery
liga
350
ĠFre
Ġextremists
Ġmention
Ġvetting
Ġundergrad
Ġprogrammers
Ġblack
Ġevidence
Ġaviation
ector
044
Ġslowing
Ġnortheast
ĠFees
Ġhomosexuals
Ġecstatic
ĠQU
tp
Ġcrumbling
cyclopedia
Ġanthropology
ocated
Ġinevitable
ĠNumerous
Murray
eals
,[
Ġhappened
Ġonset
Ġdepl
Ġneighbors
Ġglossy
Ġoverseen
ĠHunting
Ġunequ
Ġ79
Ġgenes
Ġtenant
Ġintuitive
ĠMerch
becue
ĠErik
ĠPhilipp
Ġdisinteg
ĠSOL
Ġbeef
ĠHazel
ĠFC
ĠMIS
ĠSor
formerly
Ġledger
Orderable
sensitive
Ġstrapped
ĠEthan
Ġceremon
LOCK
delay
ÃŃ
Ġhuman
Top
ĠYin
uced
ĠLansing
Ġbar
Ġbenefits
anny
ĠMTV
ĠXi
âĢĳ
Ġml
Bottom
Ġinval
Ġhang
Ġtongue
Ġlisten
Ġimplement
ĠNorris
Ġcurrents
Ġstumble
ĠIndia
Ġcourtyard
pload
Ġvocals
ĠStrategic
ĠPatrick
ĠTracy
igue
ĠYates
Ġ1959
imensional
Ġsearching
Ġexacerb
Ġphilosophers
achus
Ġantenna
¾
Ġexempl
ĠSolutions
Ġsharper
Ġhealth
date
Ġskilled
s
Ġdebit
Ġteased
ĠProgressive
Ġreciprocal
ĠPASS
Ġactivism
Ġbribe
gd
975
Ġanten
Ġvehemently
Ġlull
Ġ(*
Ġpolicemen
565
Ġtheorist
Friend
ĠDEBUG
ĠDACA
ĠScorp
Ġeducation
ton
Ġallied
ugs
Ø³
Ġden
Ġliability
Ġroses
ĠTanaka
Has
ĠTrain
Ġconfess
icia
Hi
Ġrainfall
ĠWrap
Ġworkload
Ġelectrical
itect
Ġrevolutionaries
Ġsevered
obin
Applic
focused
Ġtranscript
Ġjudgments
Ġdeliberately
ĠTask
ĠLost
ĠPair
empty
C
Ġaccumulating
try
eanor
ff
Af
ĠFull
Ġlaughter
avorite
ĠKS
ĠJames
ĠMC
Ġhills
Ġtackled
Ġpublication
beh
uy
Ġloser
itate
En
ints
ĠBelieve
Pick
ĠHapp
Ġqueer
Ġsequel
FG
Ġscoop
015
Ġfunding
ator
ĠSHE
Ġinhab
ĠIdle
Ġbells
Column
Ġhous
Ġsidx
ilian
Ġliterally
ĠBreitbart
ĠWD
Ġrecurring
Ġallotted
Ġ379
Ġstandoff
ĠMich
compan
.....
Ġ433
ised
Ġlean
ĠAnglic
Ġtimer
Ġinnate
ĠSlave
ĠVirus
antly
Excellent
ĠWin
driving
termination
ĠGundam
ĠGuard
ĠKel
ĠLIN
Ġ2013
Ġcommits
ĠWalker
Ġdebated
Ġinfluencing
plate
media
Ġelev
bodied
Ġexceedingly
Ġdecomp
Ġpolyg
cipl
Hit
Ġsunny
Ġcomposing
's
Ġcoordinator
Ġobsessed
Ġprototype
KS
oit
Ġphased
released
Weight
Ġtomato
uctor
¿½
Ġbottom
ĠPhysical
GY
Ġsho
Ġcyclist
021
ĠConflict
mag
zens
Ġinnumerable
ienne
ĠMatthew
Ġdifficulty
ade
52
ĠST
Ġmisunderstood
banks
Bir
Definition
Ġalcoholic
ilyn
ĠMay
buffer
ronic
Ġurges
Ġunsupported
Child
ĠDallas
Ġbaggage
IONS
Ġinstalled
riz
Print
Ġdrink
ĠCharlottesville
Ġcoordinate
Ġanywhere
winter
ĠOrbit
Ġfake
åĬ
BN
athi
ĠBangalore
Knowing
Cell
Nap
Ġblink
lean
Ġarmies
¬
å§
tops
Ġvanish
dist
dal
Ġforceful
Never
Ġversion
lands
OSP
isitions
Ġnorms
ĠZh
>
Ġaddressing
ĠParam
Phil
Students
Counter
ip
ĠNort
Ġlatest
together
frames
Ġhalftime
Ġirreversible
Ġevid
ADVERTISEMENT
ledged
funded
Ġexhaustive
session
ĠSummary
Ġcough
ĠAzerb
©¶æ
ĠHamm
selling
Ġgraduates
Ġunsafe
izens
ĠIM
ĠTele
ĠPS
Ġclutch
Ġessentials
Ġbrav
ĠBeam
Ġaudit
harm
coe
romising
Ġcognition
Ġrelocate
Ġeyebrows
erick
Ġoccupancy
Ġkidnap
Flo
Ġinvented
Balance
ĠHamb
assis
Ġconsolation
Ġmemories
ĠSolo
legate
ĠNorse
ĠRowe
ondon
ĠJournalists
ĠAug
Ġsubpoena
ahah
ĠSupreme
Ġforums
Ġinterventions
:'
redibly
ĠHal
Ġnominated
Ġ980
ĠAnat
ĠDRM
ĠDylan
medical
ĠLunch
ĠAncient
Ġglaciers
ethnic
Ġvaries
partisan
Ġpathetic
definition
Crystal
Ġmarketed
Ġradically
Ġmirac
iets
ruce
LM
True
Ġrelying
Ġhurricanes
Ġcorporation
ensual
Iv
razil
htt
Ġ][
Ġnotwithstanding
kl
analysis
thought
BOX
arij
ĠAustralian
redit
Ġoutper
ĠDirk
Ġdepths
Ġrehabilit
ĠDouglas
ĠNET
ĠJar
ĠEag
quest
Ġrapists
Ġlitigation
aw
Ġfaith
eral
ĠDisplay
vag
ost
Ġbutton
story
ĠNA
Ġboosting
Ġvalidation
Ġfabrication
Ġecosystem
Mario
Ġdrastically
ĠPreferences
ĠUpper
Ġacqu
sd
figured
Ġrevelation
Ġcigarette
Ġguts
Ġdeaths
Ġfem
formed
Ġembell
ĠDol
War
Ġpayoff
aby
isure
zx
Sov
icians
avement
Samsung
Ġmemoir
hement
Ġarrived
YING
ĠSax
ĠVeg
Ġcarry
Ġremained
ABC
irts
ĠSTAT
ĠBlast
Ġinhibitor
ĠOrwell
Nic
Ġthence
Ġ())
ition
Ġ___
Ġsnow
South
Ġreleasing
Care
Ġscreens
5
ĠMeyer
Ġprobes
Ġmailing
ĠBureau
ĠAlc
Thousands
ĠKelly
magic
duc
ãĤī
Ġunnecess
Ġstocked
Ġruined
Ġuninsured
Ġmedic
FORM
Ã¶
Ġsoph
Ġapologize
Ġdummy
Ġcad
Ġmodular
qq
Ġdiscriminated
Ġslams
ITE
Hig
Ġscaling
ĠactionGroup
ĠðŁ
ĠTPP
Ġworm
612
ĠPurg
>:
Ġinput
ĠWeb
animous
Ġrehabilitation
Ġfif
Ġalot
ĠGamble
ĠGaza
Ġsuggestion
Ġmaterially
Ġunite
Ġ2024
pictured
ĠYosemite
Ġdismissing
lah
ĠAnnie
Ġflame
Ġvinegar
Ġali
562
Ġspurred
okin
ĠNeck
Ġknots
Dad
Ġè
Ġtrou
ĠCup
ĠVirt
Ġbuf
ĠWer
Ġbrowsing
ĠSole
ĠZhao
ĠEgg
ĠMadden
ĠMaria
Ġcontest
OGR
ĠGOD
Ġruntime
Ġcontributor
meric
Ben
ĠSM
ĠãĢĮ
Ġcustomary
long
Ġwalking
ĠTw
Video
ĠFD
quila
227
Ġgovernance
Ġannouncements
Ġquint
Ġcocktail
Ġostensibly
ĠMario
resolution
Name
Ġpasser
pain
Christ
âĢ¦
ĠMean
express
Company
558
multi
ĠUnderground
Scar
!".
Ġcompe
ĠApp
Ġsleep
Ġcontend
namese
vik
ependent
Learn
Ġcathedral
ĠAmanda
ĠHatch
compliance
Ġsurvives
Ġprevalent
ĠVMware
Ġsalesman
Ġcontexts
outheastern
Ġgau
Ġfeminine
exist
Ġinbox
anamo
ĠDifficulty
ool
Ġbees
ORN
ĠWANT
Ġpotency
ãĥĨ
Ġpiss
Ġfrantic
Ġchill
MENTS
speak
%.
Ġbackyard
dead
ĠZeit
owicz
ĠHerman
ĠISS
Ġturb
Russell
obos
Ġ1895
ma
Ġhurd
ĠBallistic
nis
Ġminorities
Ġtracts
Scient
ĠAmelia
urrency
Ġstunned
ĠCustom
Ġdrown
oros
ĠDav
Ġdivorced
Ġvacated
Thompson
Ġcalm
Ġline
dn
Ġinvestigation
ĠAssembly
Ġprotein
Ġtipped
ĠSanford
^
Ġpict
depending
Lv
Ġmonastery
Ġtutorial
ĠBurke
ĠFang
mr
ablo
rael
ex
Ġminded
ĠMoe
ctx
ĠLyons
ĠChilean
ĠRG
Ġperl
Ġelabor
Ġreconnaissance
hor
Ġscraps
Bow
Ġblended
Ġbastard
Advertisement
Walk
Ġunworthy
Chem
forts
Ġpreviously
ĠWinner
Ġinsurers
Ġresettlement
Ġmage
kefeller
Ġtranspired
Ġanticipating
Ġinduces
ĠThrones
soType
Ġsi
Some
Ġrh
Ġarchive
Built
ĠBurn
itions
ĠBulletin
Ġadministr
Ġtrapped
Ġdemocracies
uni
ĠPriority
ĠBulk
ĠLimits
Ġlatitude
Ġsingle
ĠBucs
ĠEth
Ġlocating
job
phal
Ġspecific
Ġcoalition
ĠTwin
Ġorcs
ĠAnkara
ĠHartford
estial
ĠRock
Ġclassification
ĠMo
Ġorphan
paced
ospels
TX
mis
ifty
umin
Ġbrewery
Putin
hops
norm
ĠSamar
Ju
Ġeighty
Ġherd
Ġwhispers
cffffcc
âĸĪâĸĪ
Ġofficials
Ġbol
Dri
ĠSwitzerland
seconds
ĠOver
Ġpicked
Ġdeputies
Ġhaving
ĠHuss
ĠNK
ĠMol
ĠMcCabe
Ġ01
Ġrubber
Apps
angular
ĠGreg
Ġbreeding
176
ievers
ictional
ĠSell
291
Ġmaternity
Ġspite
ĠColombian
angu
asca
ĠCoh
Ġpresence
chens
ĠLiterary
Ġsinking
OSED
Ġtwent
Ġdrying
ĠACTIONS
Ġ"#
Ġdevils
æĿ
OWN
spect
Ġmisconduct
ĠDeb
ĠHalf
NER
Ġknown
ĠLib
Ġunclear
Ġhectares
ĠVPN
ĠRevival
Ġvascular
Ġelbow
Ġhandlers
icultural
ĠHI
Ġfragmentation
key
System
Ġinterference
Nin
Ġinfl
Ġtink
selves
Ġviews
ADE
Ġuniverses
Ġproverb
writer
aneers
ĠSchools
Y
Ġchiefs
ĠRahman
Ġexemplary
Ġ179
ĠAnfield
ave
ĠBrothers
Ġroam
Ġreactionary
priv
Ill
Ġhomemade
ĠNorthwest
ĠMichaels
olving
Ġlet
Ġrepeats
ĠCarnage
ĠCursed
Ġovercame
ĠCommit
Ġported
ĠHitman
ĠSafe
Ġlifetime
ĠJindal
åĽ
Ġtranslations
ĠLaser
modules
ĠAMC
Ġgrunt
Ġstoked
Ġunstable
Ġrealistic
Ġarrangement
Ġdirt
porting
endi
ĠBMC
gren
chemical
Ġentrances
independent
pent
antage
lethal
except
Ġcanine
hemat
iting
ĠPNG
ĠMembership
Ġaesthetics
expl
ĠBeans
ĠWarlock
ĠAllaah
rolet
ĠWords
Ġadjusts
Ġanat
ĠGaw
They
ĠEnding
ogy
Ġcodes
atography
evidence
Ġinstruments
ITCH
Kansas
Ġppm
Ġproof
Ġpromptly
Ġstrugg
Ġbitten
Ġflights
ground
Ġrefuel
Ġalignment
Ġtab
ĠSunshine
wrong
Ġiii
Little
ARI
Train
ĠLocations
Ġsucceeds
aint
ĠGrind
Ġenshr
ĠMAT
abre
idan
Ġwik
ovic
Ġtorture
ĠReported
Ġunfl
manuel
ĠStreet
ĠCull
eneg
ĠNobody
ĠRockies
etting
auri
Ġestrogen
Ġcaptured
ĠCav
Bird
Ġ1988
Ġ$\
Ġdangling
Its
ĠBooks
inflamm
ĠAfric
Ġ199
Ġantit
estones
ĠCust
Ġwhereas
Ġtiss
20
Ġ50
Ġmarginal
Ġricher
ĠTHC
Ġpriced
Ġsupernatural
requent
Ġstern
Ġeradicate
Ġå¤
Ġevaluating
someone
etus
Ġrelayed
ĠMunich
Ġpeel
ĠSpit
Ġresistor
Ġ358
Ġste
Ġmotherboard
Ġlongitudinal
ĠKill
eering
elling
there
ad
Ġstrategic
ĠSusan
Ġlowering
Ġmodule
ĠUNESCO
457
ĠAmpl
Morgan
Ġethnic
Ġinefficient
ĠMathematics
Ġ--------
Ġtriangles
ĠCanterbury
ĠSkull
lay
430
Few
Ġrebell
Ġallele
ĠLisp
ceive
Ġbooked
mur
ĠVen
Ġembarrassing
Ġcarved
570
Ġconcert
Ġcrisp
ĠPlatinum
ĠQu
plays
Ġcow
iance
Ġrepl
Ġdysph
ĠFract
ĠWol
Ġnowadays
Ġmeteor
Ġdevelopmental
planes
Ġgradual
ousing
ĠSass
lene
Ġscans
Ġresembling
Jerry
sex
ilib
Ġ223
ĠRhode
Ġrefine
Right
ommod
ĠTreasury
anqu
Ġterrain
Ġrecreate
Ġmonopol
stab
Disney
secret
ĠPetraeus
ĠDocker
iton
ĠGamerGate
ãĥī
sheet
ĠPeg
Ġfolding
Ġhoney
akedown
Ġshiny
Ġproductivity
Ġundermines
Ġshowcasing
ĠCongress
Ġtradition
ĠShar
Ġcloset
.............
Ġsentencing
ĠHE
Ġasleep
inky
axy
ensitive
Ġoutlines
istical
Ġavoids
ĠNas
Ġbeware
Ġ58
Ġenergy
ĠFinger
Ġheroine
washed
lasting
ĠKyl
ĠDenmark
Ġlistings
ĠEver
Ġhoard
ĠSurveillance
ĠPalin
Ġbun
Ġauthorizing
arrett
Ġdemands
Ġcollecting
Prot
ĠFro
forcer
ĠThough
Ġgain
ĠApplication
ĠDod
KEN
arp
Ġmonitor
ĠZub
Ġunethical
awk
Ġclassrooms
ĠElections
Ġoptimal
ĠNigerian
hend
ĠRomero
apeake
ĠDud
Ġfalsehood
lated
Ġfists
ĠTranslation
agree
Ġunconsciously
ĠArgument
},
Ġxml
dayName
Ġeuro
ĠFunctions
onement
ĠSting
ĠAdamant
Ġbreaching
Ġfanbase
ĠGuam
Ġregiment
ingham
olin
Ġ970
Win
ĠYiannopoulos
Cloud
ĠUriel
OUGH
Ġimmersion
Ġcreatine
119
Ġinsensitive
reads
Ġpredominantly
Ġpoisons
ĠLena
Ġclans
ĠRSS
Ġdelicate
Ġlbs
ĠBurning
Ġtopped
ĠCats
bits
ĠWant
ĠLoss
ĠSpartan
Ġ299
ĠFall
Ġ?
Ġassassinate
clerosis
Ġrule
Ġelementary
hel
ĠHealthy
Ġdwelling
jiang
Ġhomes
Ġacids
locked
Ġpessimistic
Ġimpulses
Ġdisadvantages
.):
ĠIdol
Ġcurtains
Enough
)/
dL
ĠBor
Ġtradem
ĠDemon
Ġartifact
amera
ĠForm
ĠSure
Ġhandc
lex
ĠAuto
Ġboundaries
Ġexperienced
Lt
Ġempires
Ġglor
Ġran
ĠNOT
Ġdecorative
ĠQuart
llo
Ġgovernments
Ġdetriment
Ġ1862
Ġferry
east
Ġmul
ĠFrey
Ġepile
ĠDodgers
ĠAmen
Journal
ĠVIII
Ian
Ġexch
witz
ĠPerkins
Ġdisl
Ġamusement
onsense
ĠInquiry
Ġconcent
Ġchecked
ĠMacro
Talking
Ġshifts
Ġdecl
Ġdiameter
Ġculmin
ĠGIF
Ġproverbial
Rocket
Ġranging
Ġattended
Ġdisplaced
ĠThib
ĠAzerbai
fman
ĠDaly
ĠMacDonald
ĠEllis
ĠSph
Ġproletariat
ĠAlberta
oph
ĠEmerging
Ġcomeback
Ġsow
ĠDialogue
Ġoutfield
ĠRidley
individual
uated
LI
Ġwaging
Contents
ĠYel
Ġwarships
bytes
Ġdestroy
ĠVenice
swers
Ġanalysis
ĠConstitutional
Ġmins
PER
Ġdistrust
Ġbikes
ĠTasman
Ġballots
Domin
ĠPar
Ġjour
lator
ursive
Ø§Ø
Ġno
Ġresemble
Ġvanilla
Ġhonorary
Ġmanuscripts
chedel
aliation
ĠDro
Ġadept
ĠXIV
Ġissues
Ep
Ġconcessions
ĠEagle
ĠFrequ
adobe
Ġboredom
Length
ĠEstonia
Ġgland
Ġhopeful
Ġnear
ĠMotorola
Ġcrow
Ġplanes
ĠPetra
ĠEUR
ller
Ruby
Ġpractise
¼
Ġmathematics
git
Ġinterviewed
Ġrehears
Set
Ġ.)
arta
ĠZoo
Ġsciences
ĠSean
Ġpictures
Ġbrushed
Ġ217
Ġcorrosion
Ġ1080
ALLY
Ġadvancements
Ġsupportive
Ġdodged
uin
Ġspawns
ĠSolution
anners
HEAD
Food
Ġdir
á¹
Ġreversed
Ġinaccur
apego
Roaming
Gene
ById
,
Ġ196
ĠChampions
ĠScan
ãĤ¨
!?"
club
ĠPOV
socket
Ġfrenzy
ĠMold
ĠWEEK
Ġcrafting
288
Ġindispensable
Ġgeometric
irting
Ġobtained
Ġ360
25
Ġbounced
Ġpopulated
below
Also
ippi
Ġsprings
Ġrewards
Register
ĠAl
ĠRack
Ġcentrist
Ġtube
protein
ĠHardcore
english
Ġpearl
Ġequitable
Socket
ĠWOR
020
Ġconnecting
>)
ĠHappy
ĠReno
Ġeditorial
ĠIndies
Ġwished
ĠHer
la
Ġcasting
$
ĠPlayoff
ĠGunn
Ġentrepreneurs
.
Ġtomb
ĠPassenger
Ġincess
apist
Ġmerry
486
ĠGord
Ġoppress
ĠJason
cone
ĠSubcommittee
Ġabroad
ĠMat
Meg
ochem
ĠKnights
ifies
Ġrelapse
Client
ĠEsk
Ġstove
ulnerable
ĠComic
Ġfinishes
arak
Ġdimensions
Jun
ĠKilling
vacc
ax
ĠCONTIN
raint
Prosecut
onia
ĠLilly
Ġscorer
Ġaw
Ġhypocrisy
Ġworking
ĠWayne
itizen
ĠClin
Nintendo
114
Ġangry
Ġhomicides
Ġunfairly
Looks
Ġrecap
ĠPles
Ġgarment
Ġ==
ĠÎ¼
Ġmosquit
ghazi
Ġplaceholder
odka
ĠDevils
ass
acey
ĠCPC
Ġpersist
ĠSheet
K
ĠClint
Ġvortex
Ġnods
Ġcultiv
Ġbuttocks
Ġtravelling
Ġqu
Ġadults
ÅĤ
ĠSed
ĠShade
ĠVerse
Ġ*)
Prime
Ġshowdown
agascar
Ġhalted
ging
Ġyourself
rer
ue
ĠLatest
Ġhey
Ġwon
Ġanimal
Ġpm
ĠPrevious
ĠReaders
Ġinfantry
Jane
OY
ĠWand
Ġfulfil
Ġinhabitants
ĠYog
otom
Er
imum
handled
Ġexperiments
oulos
ENCY
ĠDungeons
slaught
tall
Max
iaz
é¾įå¥
Ġasserted
ĠCDC
ifi
esc
lt
ĠHak
Ġderailed
ĠMAD
ĠWeapons
ĠRobb
ĠNicola
Ġtotaling
ĠAlto
128
Ġgloom
ĠLockheed
Ġ198
counter
quant
Ġ*
Ġelecting
==
Ġ[...]
Ġpinpoint
Ġguideline
encing
ĠSkype
Ġhors
Ġservices
Ġnarcissistic
Sweet
Ġtyrann
Ġreflects
ĠFukushima
ĠLaksh
Fig
Ġmarquee
ĠParliament
Ġï¿½
ĠJeremy
ĠEur
Ġ105
ĠCologne
Ġcondesc
ube
Ġthrust
690
Ġnewly
Ġsnag
ĠItem
ĠSens
ĠPromotion
ĠBetter
Ġleasing
Ġpad
Ġreassured
month
zinski
Ġemphatically
Despite
ascript
Cre
Sports
ĠTradable
Ġfreak
Ġwisdom
Ġdaring
Ġladder
Ġgrilled
ĠShir
Ġscandals
Ġdeficiencies
Ġphysi
ifacts
====
PDATE
ĠSheen
260
Ġelephants
ĠGrammy
visible
aff
ĠPur
ĠWine
ĠSequ
Ġpersonality
rival
WF
,.
Ġhr
ĠRouter
ĠStarCraft
iatus
ĠBattles
ĠEmirates
ĠNevertheless
Ġbusinessman
017
Ġpleasures
obic
Earlier
very
ĠFounders
ĠBa
ĠBaxter
Ġtechno
equal
ubric
Ġcolour
Ġimagine
ĠPra
ĠGRE
ĠMastery
OL
Ġrural
Ġaccomplished
ĠAndreas
Ġinstalls
Ġconf
Ġdisputed
Ġ167
Ġhereditary
ĠKai
Ġ000000
Ġ1024
ĠMcCain
ware
Ġheated
ĠTamil
Brend
ĠOl
ĠTier
Ġmanipulation
Ġfunds
Ġpiercing
isner
ĠPOW
hovah
ĠColorado
ODY
Ġdod
Ġiv
Ġfaded
ĠFridays
ĠGel
Ġ352
Ġcourts
nesty
ifact
ucle
orous
Ġpirates
usive
ĠRobot
iere
Ġhashtag
Ġaffection
Ġgeneral
emption
Ġmeasured
Ġhitter
ĠContinued
ĠMadd
Ġinflu
Ġso
Ġtempered
ĠSears
Ġblackout
ĠDifferent
Sure
ĠElsa
Camp
Ġmisdem
Ġord
ĠConstruction
Ġdecoration
Ġled
HER
ĠNass
Ġgovernors
OUN
Ġhump
areth
ĠDARK
Ġspends
Iron
Ġdick
gorithm
GAME
ĠInvestment
anity
Ġspine
Ġtaxed
Ġfooting
enforcement
Ġexplos
vez
Rob
ĠLeviathan
##
Ham
Mr
ĠEco
ĠSchr
Ġranking
Ġdirected
Ġassess
iem
techn
ĠAbility
Ġscoring
Ġstanding
Ġtoile
members
ĠExhibition
ĠUbisoft
Ġrumours
ĠFellow
ĠItalian
Ġ1960
ĠCountries
dri
ĠPol
appy
ischer
Ġportrays
ĠFountain
Ġappendix
Ġcheering
Ġappar
Ġgenerate
Ġincorporate
RE
Ġ420
Ġspike
Ġvets
!)
ĠGarage
onut
ĠLOT
ĠLaz
fax
Ġhugged
ling
Ġsuffered
ĠFlynn
edo
avanaugh
ĠAttribution
currency
ĠLIMITED
ĠSuddenly
ĠDonovan
Ġceremony
Ġshoot
ĠICO
ĠRegulatory
Ġturmoil
Ġovercoming
today
.''
ĠUpdated
ĠBom
Ġsparse
Ġapplicant
orious
Ġcondone
Ġarter
itism
Flickr
Ġ42
ĠIndependent
Ġscrutiny
rez
leg
Ġredevelop
semble
ĠNau
ointment
ĠLIA
ĠDivinity
ĠHear
Ġfile
ĠTreaty
Ġfant
ĠAthens
Ġpreservation
Ġenlightened
righteous
rier
ĠAngelo
ĠOnePlus
RT
uras
Ġderivatives
IV
ĠRCMP
Ġbeforehand
ĠLam
Ġvariable
Ġimporting
Ġpreference
ĠDiscount
Ġsaw
ĠFeeling
Ġvariance
Ġspent
geons
Gy
ĠSOFTWARE
afer
ĠYs
ĠSalam
ĠTata
Ġdemocrat
idity
Ġfourth
Ġtexture
Platform
Ġrhetoric
ĠTrek
Ġshark
Ġsmash
ĠChef
Ġcompat
Ġbanished
ĠKau
Ġplum
âĢĶ-
÷
iller
ĠConnection
Ġgrant
Ġfactions
ĠNug
Ġloft
Ġwaning
Ġsmoother
He
arling
FAULT
Ar
Ġresidency
arg
otion
Ġprimarily
215
Ġprotracted
Ġbidding
Ass
Ġslur
ĠGuy
ĠMinneapolis
Ġdiscrepancies
Ġglances
olve
Ġartists
OTAL
Ġindist
power
;;;;;;;;
ĠISO
Ġsubordinates
ursor
Last
ĠVas
PLE
ĠCelsius
grad
ĠDET
ĠZak
ĠCrazy
ĠGHz
ĠDogs
23
Ġantioxidants
lems
Personally
ĠConfiguration
Ġredistribution
before
iband
uter
Technical
we
ĠAssassins
inition
ICO
029
armor
Ġsacrificing
ĠHass
Ġinducing
ãĥ¯ãĥ³
Ġpumps
=#
Website
ĠPAY
Ġperm
ĠMud
Ġunderwear
Ġstain
El
Ġonion
util
Ġ182
Ġdarkest
Ġsonic
ĠInvalid
Ġlav
ĠAlph
ĠOPER
Ġmolded
GM
ances
Ġjoyful
sign
ĠOlive
ĠGuilty
ĠNights
ĠSimilarly
ĠRamsey
erent
Ġsperm
ĠVi
Ġforecasts
lag
ĠHollande
hub
Ġnarciss
ĠSharia
ĠPetition
Ġmeans
cloth
Ġaffect
ocard
Interview
Ġlearned
ĠAre
inst
Ġtaxi
Ġbou
258
ĠOutput
Condition
ĠEvolution
)\
Ġgardens
ĠGenetics
Ġinsepar
Ġdeclaration
Ġacknowledged
ĠOst
ĠTelecommunications
imag
sheets
210
Doctors
Ġsket
amd
css
ĠShaun
ĠKee
ĠLieutenant
Ġdisparate
Touch
Ġimmersed
ruary
Ġdefe
ynes
Form
Ġancestry
dc
Ġgrowth
utton
horse
ville
ĠQuality
ĠAthlet
ĠSTD
ĠClone
ĠIII
Ġdetrim
ping
ĠWere
Ġconvers
Ġresponsibilities
ĠChurches
ĠTim
Ġrocks
Ġaccounting
ALT
ewater
Ġinterrupts
Ġì
Ġborne
Ġdissatisfaction
Ġlower
worker
Ġbehav
jack
ĠâĢķ
ĠFailed
Ġlegendary
ĠSoftware
agi
ĠProceedings
Ġcrazy
Ġmesh
Ġroaming
toc
Muslim
char
883
Sync
Ġpay
Ġmushrooms
CENT
Ġroles
Ġcaster
ĠCloud
ĠSaturdays
ĠIniti
ĠDraco
Ġvividly
Ġcaused
Ġscreamed
65
Ġunanim
Ġabout
un
ĠBengal
Ġvas
Ġmanifestations
ĠRender
ĠDent
Ġvitro
Ġmood
Ġsequences
Ġabsorbs
Ġcorporations
Ġchlorine
ĠKC
ĠPredators
ĠConvert
Ġreduction
Ġlessen
bo
Ġgoodness
highly
Ġafforded
gyn
Ġmanufacture
Ġfreezing
Ġroar
âĢĶâĢĶâĢĶâĢĶâĢĶâĢĶâĢĶâĢĶâĢĶâĢĶâĢĶâĢĶâĢĶâĢĶâĢĶâĢĶ
Ġeffortlessly
cise
eways
ĠMorrison
tis
Random
akespe
ĠFAC
Such
çĭ
ĠFreeze
DOM
Ġlandlords
Ġorig
ouk
ickets
Ġ409
ariat
Ġindifference
Ġreliably
Ġabsurdity
Ġ777
ĠNile
oting
Ġven
Letter
Ġbeat
Ġinstitution
owed
URI
ĠAstros
èª
ĠLaunch
interested
Ġnoticed
Ġproves
inctions
602
income
Ġhappiness
ĠIvanka
Ġprivately
ickers
Minimum
ĠLetters
Ġsources
OUR
Ġmitigate
145
ĠLuc
Ġhumane
ĠBound
wikipedia
Ġstiff
nu
Ġadmiration
Ġwishes
Ġconspir
front
ĠSiem
ĠAchilles
................................................................
ĠRemem
avin
Ġcommuting
ĠTiger
ĠClean
Almost
lander
sey
Ġdeputy
Ġtransferring
ĠParamount
Ġ406
itbart
Ġstat
ĠFortune
Ġbatt
699
BSD
abase
Tact
ĠFrieza
Ġfirefighters
Ġflames
apers
Ġmotorists
âĺħ
Ġwork
Ġbattery
ĠData
ating
ĠMod
Ġfam
Ġdowngrade
Ġevenly
ĠWays
Ġenrichment
tmp
apsed
orescent
zman
parse
Ġminutes
Ġounces
dale
ĠCustoms
ĠProcedures
munition
Ġculp
Compan
ĠMaps
Ġslideshow
Ġjammed
Ġtore
ĠMort
ĠJenn
Ġ153
Ġstatutory
ĠTehran
Ġlooks
Ġenvironments
ĠBashar
Ġconcurrently
commit
Ġdetecting
ĠBrook
Ġemulator
ĠWarren
Ġslowdown
hea
ĠPVC
Ġdrills
rices
ype
Ġhinge
Ġempir
ĠArizona
swing
Ġcorrectional
ĠWORLD
ĠHerm
guided
ĠSalv
ĠHB
ĠHar
Ġhops
ĠScandinavian
Ġ1984
Ġsolidarity
Ġtale
ĠLegion
Ġsensational
Ġbreathe
ĠCambodia
acular
Ġcollabor
Ġbullying
iev
%%
Ġmatch
Ġelectricity
Ġflown
ĠRece
vor
social
Colorado
Ġshooters
Ġreconstruct
ĠSetTextColor
ouses
emort
ĠPompe
reen
Ġconfirmed
oldemort
ocol
united
ĠSega
Ġunaffected
Ġrise
abbling
Ġvegan
THE
aquin
esley
Ġleng
Ġwifi
netic
ĠSX
Ġdecimal
Ġrules
Ġcame
Roman
ĠPedro
ĠSag
em
Ġguaranteed
Ġobstacle
Ġcrashing
thy
Ġsurrounded
ICAL
ĠShipping
Ġsketches
1979
ĠDes
bridge
Ġflew
ĠChocolate
Ġlongevity
opher
ĠBlizz
Ġbachelor
Ġcalculating
ãģĮ
Ġtemptation
787
"}
Ġhypocr
00000
Ġmock
uilding
ĠDuel
Ġtheatre
CVE
Benef
Ġgarner
ĠRoe
ĠSubject
ĠKlaus
Ġpromoted
Ġeve
cms
izational
Ġprayed
Ġblowing
Now
sm
ĠPace
ĠEDIT
mL
NG
Ġadvertising
Ġamplification
Ġflash
402
ĠSecrets
ancel
ĠFrog
ĠPer
gross
Ġand
Ġthereafter
Ġdeploying
GG
ĠCary
Ġinvoke
Ġoff
Ġhyp
rule
othermal
chn
ĠBEN
-
Ġeyewitness
ĠThrow
root
ĠSil
Houston
Ġpresentations
rr
Ġestimation
league
Ġaudi
opping
ĠConcent
ĠChristina
Ġenact
ĠInvasion
ĠKira
Ġweighs
gamer
ĠKingdoms
ĠAstral
mind
åį
omb
Ġnotor
Ġcuring
Ġfn
Ġlanes
Ġairst
undai
Solution
Tw
bys
Ġjudged
ĠEinstein
Ġcould
Ġproduction
Ġmattress
Ġforum
Ġfisher
Ġpowering
ĠPart
Ġelf
peg
292
Ġdegener
Ġreached
Ġopera
vertis
Ġener
ĠPolitico
ĠTips
Ġsoftly
Bind
Ġstead
429
Ġhopes
ĠGuests
ĠPom
Ġmush
Ġrequirements
ĠAlice
ĠBryant
ĠSerial
ĠHybrid
ĠClojure
ber
Ġlips
Ġresentment
Ġdownload
Ġretard
Ġclearance
Ġtimers
Ġcreatures
annels
ĠNoct
Krist
blow
Ġirrad
oid
Ġhandmade
ĠGinger
ĠDesigns
ĠOwl
ÃĥÃĤÃĥÃĤÃĥÃĤÃĥÃĤÃĥÃĤÃĥÃĤÃĥÃĤÃĥÃĤÃĥÃĤÃĥÃĤÃĥÃĤÃĥÃĤÃĥÃĤÃĥÃĤÃĥÃĤÃĥÃĤÃĥÃĤÃĥÃĤÃĥÃĤÃĥÃĤÃĥÃĤÃĥÃĤÃĥÃĤÃĥÃĤÃĥÃĤÃĥÃĤÃĥÃĤÃĥÃĤÃĥÃĤÃĥÃĤÃĥÃĤÃĥÃĤ
Ġ450
Ġbelongs
Ġwandered
Ġexpected
wear
Ġwhole
Ġrestrooms
iyah
Ġexplorers
Gu
Ġstrategically
Ġhumiliated
internet
Ġzoom
ooth
Ġbytes
ambers
Ġslid
Acc
Products
ĠNeighborhood
ibly
Ġgay
ĠRoy
Ġshy
Ġconceded
Ġglad
ĠSchn
Ġcollaborating
ĠDarling
ĠFalls
female
ĠLOC
Chel
error
itage
Ġgar
ĠDemocrat
ative
trip
ĠKers
ĠKubrick
Ġacknowled
Ġvm
Ġversatility
SIZE
ðŁĳ
ĠNaked
ĠNorn
Ġrelentless
ĠNotes
Ġsquee
Ġmath
recomm
Professor
ĠFilter
Ġplot
Ġdavidjl
liter
ĠLET
ounty
Ġundrafted
ĠMilk
grand
Ġcourtesy
623
Ġco
ĠWAY
Ġcorrected
Rush
Ġdim
Ġdrift
Ġcollapsing
ĠUtt
Ġpengu
wed
Ġfeature
Ġherds
Opt
ĠRegistrar
Reader
Intern
laun
idav
tted
ciation
Ġfeeding
shield
tif
Ġpursuant
Group
Ġhaha
she
ĠHorn
Ġdown
Ġmachine
ĠVP
Ġrods
iry
Iowa
Upgrade
Ġpit
Ġradical
ĠRecipe
ĠNicol
Ġhand
Ġelemental
Ġarchetype
CSS
vati
Yesterday
Ro
Ġstarve
Ġcustomizable
itivity
Ġsprang
ĠAuthority
Ġconsultancy
andise
ĠArpaio
Ġè£ıç
Ġautomated
ĠMaterials
Ġassassination
Ġgalaxies
eele
Ub
ĠEly
eg
ĠEast
Ġairline
Ġinstrumental
uno
Ġemotion
Ġcrown
ĠConvention
Ġingest
Bio
Ġcolossal
Ġdevices
ĠCompar
ĠStella
Charlie
ĠTent
ĠEfficiency
Rat
vim
Ġsexuality
abo
Message
Ġlas
13
Ġhug
Ġtapping
Ġstri
Ġretreated
Ġspoiler
at
Ġmouth
Ġeerie
Ġcivilizations
Grade
ĠCET
Ġcrochet
fuel
Ġsuck
osal
276
ec
Ġjournalists
Ġnep
Ö
Ġmeasuring
Ġassertion
Ġleaked
Ġnewborn
ĠWiFi
Ġracists
994
Ġtriv
ĠStamina
Ġhaul
es
imo
Ġdogged
Ġexoner
sein
chi
Ġtuition
Ġengages
cp
incible
Ġmultiplication
Rather
Ġpim
ĠHyundai
ANC
74
Ġing
ĠTrade
Ġspying
Ġhob
ĠMoff
Ġunderscores
ĠSaddam
Ġindices
35
ĠVerge
ĠKier
Ġ1905
Ġleisure
ĠRouse
Ġarchitectures
Chart
Ġfractured
Ġlowest
Ġcodec
ĠNina
unic
ĠPorts
Ġlogistics
ĠSto
verified
Dynamic
æľ
ĠReload
rupulous
yip
obe
ĠXander
GN
irds
ĠSweden
ĠNation
Ġtwentieth
Ġbould
Rub
ãĤ§
ĠAcceler
ĠSpice
Ġmaintaining
Ġjeopard
Ġqualitative
ĠLOG
Ġinv
Ġaccordingly
Ð°
lahoma
Ġraced
Fortunately
iu
Ġmanufact
gradient
ĠATM
ĠSpe
ACT
BG
Ġworthy
Ġdisproportionately
Ġabsorption
Ġadvantageous
ione
Ġrevel
Ġleads
ĠRape
Ġment
enth
Ġshooter
idget
alcohol
Ġnerd
Construct
Ġensued
Ġsuppressing
ĠSTOR
ĠAmbrose
grass
ĠLegislative
ĠCarmen
Ġ275
Ġperiods
Ġlimitations
Ġadorable
ĠBrush
agon
Ġidiosyncr
Ġoccurred
consider
Ġdon
Ġannoyed
Ġbiod
ĠOkin
iframe
Ġgive
ĠCinderella
Ġvillain
Ġalternative
ĠPunch
Ġfraction
Ġgul
ashi
Ġprecon
!'
ĠNOAA
Ġspecificity
Clock
================================================================
ĠAlter
Ġmother
ache
Ġlab
fledged
Ġasking
Ġreconstructed
vered
Ġcommunists
uba
imated
Ġpests
anguages
Ġprompting
ĠCork
ĠAugust
errors
Ġedge
Ġkicker
ensor
ida
nd
ionics
Ġmeddling
Ġgrading
IFIC
CEPT
$.
Port
ĠBars
Ġspend
Ġspaces
ĠLuna
Interface
ĠTom
Ġpre
Ġattorney
uity
ĠLoch
Ġexalted
Ġmakes
ĠKas
enture
Ġsulf
Ġpolarization
Ġannoun
atus
umbn
ĠCheese
Ġupholding
Ġbarking
het
Ġopioid
Ġquickest
case
Ġblatantly
ĠEconomy
may
728
Ġtranqu
Ġtob
Ġprox
ĠRonnie
ĠÂłĠÂłĠÂłĠÂłĠÂłĠÂłĠÂłĠÂł
Ġpoison
Ġtemples
con
ĠCargo
Ġlights
Ġtouchdown
ĠRousse
Ġchilled
Ġ451
aters
Supplement
construct
Ġscreen
amy
ĠCycle
Ġdebunk
atch
Ġclerks
Ġrailing
ĠLincoln
Overall
anced
Ġlords
###
lement
ĠLaugh
Ġignoring
Ġvice
gettable
ĠHistorical
Ġprior
ĠChicago
Ġtwisted
Ġreb
ĠDurham
ĠAmerica
ĠMexicans
Cost
Ġtheor
Ġcritical
ĠVS
ĠSphere
ursday
initions
Ġu
Ġfulf
Att
Maria
Ġbaskets
DJ
Ġconstantly
ocrat
367
Ġputs
Ġtougher
ĠSal
ĠMov
Obs
Ġredesigned
ĠPanda
ĠPSU
Ġalliance
Ġthread
Ġspontaneously
ĠProvides
ĠParadox
Ġrevolutionary
nsic
ĠãĤµãĥ¼ãĥĨãĤ£ãĥ¯ãĥ³
ĠPizza
Ġdeem
ĠKal
Ġboat
Ġinitiatives
Ġcrawling
allion
Ġrhy
Ġwebsites
Ġflat
ĠBooth
Ġps
Ġ148
400
ship
Ġlooked
ynamic
VICE
Vs
ĠCarter
ĠYa
Ġapr
ĠYong
Ġanalytic
Ġgluc
Filter
Ġacceler
:[
season
Ġwatchdog
Lot
Tank
aign
Desc
ophobia
Council
Ġadvantages
mast
Research
Kyle
ĠElliot
agements
Bul
Ġbringing
à¹
06
ĠRag
Ġtrop
Overview
ĠDG
Ġpredictor
ldon
Alternative
Ġunveiling
rament
ĠAla
beard
Ġlist
display
ĠDesc
Ġ1987
ĠRW
Ġlinem
Ġminions
Virtual
ĠStill
497
Ġowed
Ġprocedures
vc
guns
Ġwealth
Ġ2600
Coach
gone
abouts
aly
Ġ1971
en
ĠBlair
ĠEspecially
ĠOtherwise
Ġextortion
discrimination
azar
ĠLies
Ġnaive
Ġattitude
Ġgonna
ĠInfrastructure
Ġawhile
ĠBret
ĠLibrary
Ġdecline
ĠCroatian
Ġorganis
ĠElectro
Bang
Ġcommenter
sale
ĠResp
Ġflaws
Ġmoderation
ĠElectoral
ars
Ġforgive
Ġheadache
Ġmonarch
ĠSail
ĠExpand
ĠSprings
Ġpesticide
ĠKev
vert
Ġgrease
Ġparticipating
Ġapocalypse
ilage
Ġconsequ
Ġtrying
nel
ĠEternal
Ġparse
Ironically
Ð¼
([
Ġterminals
Ġiteration
associated
Ġcis
ĠALL
adena
Events
Justin
ĠED
ographs
Ġmaiden
Ġvomit
Ġassay
break
Ġcement
hao
ko
umm
reenshot
ockets
options
kan
ĠMoz
rikes
Ġintu
Ġinjury
reve
ispers
ĠErr
blood
ĠWatergate
ĠFal
Ġsamples
ĠSheikh
ĠMoran
Ġsilly
contract
uli
shaped
Ġfriendships
Ġmedically
DoS
Ġexamining
Ġovercl
Ġbitter
ongs
Ġsloppy
Ġchalk
Ġcoming
ometers
Hell
ĠProtection
document
]"
ĠGabriel
ĠExplicit
Ġ1940
ĠSEM
ĠBella
Uk
uta
Ġecological
ĠAtari
connect
AGES
Ġvener
Ġplacing
Ġ206
Ġlooming
adoes
breeding
Ġidol
Ġweekends
Ġcollaps
Ġrug
Ġbrutal
Ġmercy
Ġsovereign
Ġroaring
1996
ãĤ®
inventoryQuantity
Ġinvitations
ĠTalent
Ġwiret
Ġtamp
Ġcaptures
Ġconcoct
Ġmmol
ĠBrist
Ġprovincial
Ġjustification
Fear
Ġheavens
ummies
ĠBalloon
Hardware
Ġpartly
ĠElliott
function
ĠPrime
Ġantis
Ġ""
el
ĠFreem
ĠHardy
ĠButter
IDER
Ġformerly
bey
Ġinference
ĠLizard
ĠJefferson
rand
ĠStead
Ġexemption
Ġmoderator
library
Ġcartridges
biology
Ġegg
ĠLinda
Ġdowned
stan
ĠSug
Ġgeo
Lady
ĠPalestin
Ġeastern
Ġprinted
Ġaph
ĠNou
Ġargued
emed
Ġsilenced
Ġtyr
?"
Ġstructure
incre
Ġcommemor
lined
download
conservancy
Ġconcentrated
}}}
ahs
Ġplethora
spring
Ġgreater
Ġreviewer
Ġaccents
Ġflask
ĠESPN
Ġbiology
Arg
Ġsa
Dub
Ġgrandmother
Ġswelling
Ġweaknesses
Ġ978
cerning
ottesville
Ġfancy
MIN
ĠEconom
Ġbil
Ġretrie
Ġmigrants
Take
"}],"
bending
oks
ĠProl
ĠJust
ĠOkay
ĠCSI
ĠOrig
ptroller
Ġinvariably
Ġcalendar
ĠBlake
asso
Ġcarve
cakes
Ġarchives
ĠKitchen
ĠWilliam
Ġcollapse
Ġ215
Ġgig
Ġimpairment
Ġmosquito
Hop
agus
made
ĠImag
lists
Ġappointed
Ġcreates
olt
lord
Ġfatalities
Ġevolutionary
fa
hist
ĠLSD
Han
ĠItal
wide
ĠFlag
usa
Ġexpelled
Ġtakeaway
ĠRF
Ġadherent
plates
İ
Ġstrengthen
ĠActiv
Ġoverd
Ġbrittle
Ġalcoholism
Ġoutrage
ikawa
way
Ġcrossing
ĠBrisbane
father
Ġuploaded
ĠCouncil
ĠGoodwin
aila
Ġaforementioned
ĠMinutes
Ġ45
dies
Ġbeneficial
Ġfonts
Notable
Ġmates
Ġsite
ĠHarmony
ĠHearthstone
ĠWeiss
Ġsomeday
Act
yll
Ġjuices
raged
Ġconc
ĠMacBook
agate
Ġaspect
ombie
Area
sylvania
Strange
Ġfixme
Ġcomics
Ġrecounted
ochond
Ġrav
Ġtorque
ĠAll
Ġlandscapes
hide
ĠSol
ption
ĠCy
b
ĠVentura
Ġschool
Ġthemselves
Ġber
ĠHulu
ĠPlug
Ġdownside
ĠAnderson
ĠNad
god
Ġprost
Tuesday
Ġmagnetic
Ġsecrets
Ġtemperatures
ining
Ġresilience
Ġdelegate
Ġsuitcase
ĠNM
ĠLieberman
Ġsquare
Ġkinds
appropriate
Sec
opped
ush
ĠHermes
anol
Ġripe
551
ĠMob
Ġrinse
Ġbeast
ĠShawn
Ġmanipulative
ĠAnthrop
ilege
Notes
SUP
Ġrecovering
ĠMyers
Ġmotivation
Ġdrunken
Ġfinish
Ġur
Ġweave
ĠMisty
Ġ353
psey
idental
ãĤ¢ãĥ«
Ġmax
Ġdime
Ġrelativity
ä½ľ
ĠWOM
Ġoccupying
Ġcriminal
vest
demand
ĠGore
Ġslowed
Chair
ribune
Ġ92
ĠPortuguese
ĠFet
ijing
Ġmultiplier
phalt
Normal
Ġtraveling
igma
)=
ÂłÂł
ĠDamage
Ġlogin
sworth
Ġdetrimental
36
Ġclassroom
Ġair
Ġcontroversy
Ġprojected
ĠREPORT
Ġexpansions
Ġbehold
Ġlegislation
ĠChandra
process
Ġbombings
Ġconfirmation
ĠGoes
ucky
anthrop
Ġolds
Ġcommodities
ĠTwins
ĠAbe
Ġgran
Ġregretted
Ġcentralized
Ġanchors
Ġencaps
RPG
Ġkillings
Newsletter
ĠBrotherhood
ogi
Ġchests
Ġmaximal
Ġtariff
asonable
Ġvigilant
ĠIrving
ĠTechnology
Ġflared
Ġfacilitates
informed
ĠOswald
Ġ63
Ġcones
ĠpartName
ames
Ġate
ĠSatellite
Ġblocked
soDeliveryDate
risis
ulum
Ġrevert
Ġelectromagnetic
154
Ġpure
Ġsustaining
ucker
Ġbag
Commun
aturday
Ġrid
Ġmanag
urances
ĠDharma
start
Ġspaced
Ġdavid
Case
Wire
Ġfilename
ACTION
ĠFac
ĠCosby
Ġheavy
ĠCarnegie
Ġex
arah
ĠTNT
Ġbos
mes
Ġdom
Ġrefined
ĠMotors
Ġshielded
equ
Ġultra
Ġtestify
endo
ĠJon
Ġcollided
ĠGraves
JR
479
ĠMam
Ġpainful
com
Ġcomplaining
ĠWITH
Ġfren
Ġunsett
arious
rules
acebook
OOK
ĠSiri
Ġheel
ĠLong
Ġveil
273
Jewish
atomic
ĠInitially
Ġyours
govern
License
ĠRect
ĠSTATS
Ġrooms
HE
Learning
rn
Ġrewarded
Ġgift
ĠBright
Ġbrothers
Ġshops
Ġaccessories
ĠRiyadh
ĠBoll
Ġunfocused
odore
uties
usra
ĠMalt
Ġmailbox
ĠAsuka
Ġpetitioner
rils
Ġball
ĠShame
Ġexcept
Ð´
Ġnovice
ĠDign
ĠSacramento
Ġprosecutors
zz
iche
Ġsold
Ġcontenders
idate
ometown
Kent
avior
ĠDele
ĠLucas
Ġimpoverished
Ġshallow
Ġrental
Fake
Ġfolklore
byss
Ġtheat
Ġissu
nation
ĠSikh
ĠRac
ĠMond
Ġtsp
ĠPokemon
ĠPv
Ġtransmissions
ĠSection
Ġsor
Ġsituations
issions
535
ĠIzan
Ġsidewalks
Fal
Ġatmospheric
NBC
Ġshipping
MAS
casting
Ġaccompan
jong
iots
ĠWan
aunted
ĠCompanies
Ġrecent
Ġnotion
Ġpancakes
Ġgasoline
ĠMb
Ġlegitimacy
Ġoutlandish
Ġ101
Ġpackets
Ġanomal
Ġnest
ĠSmith
Ġgymn
idia
Ġah
Ġproper
Ġnorthwestern
Hash
ĠJS
Ġfoods
February
Join
Ġrecruit
Ġchallenges
Ġcou
ĠCommittees
uberty
Ġirresponsible
Ġ640
Ġsurplus
Ġjoining
off
Ġrecipes
ĠTube
ĠOVER
Ġmassage
Something
Ġancestor
Ġenz
ĠNur
Ġforging
Ġbroom
Ġ625
Ġheadsets
ĠLucia
698
Ġentirely
Climate
âĸĳâĸĳ
Ġliteracy
Ġterm
ĠUR
Ġdecidedly
wired
ĠCharity
aux
ĠRecent
Ġadjust
ĠSB
ĠWatkins
zzo
ĠHealer
Ġrecursive
Ġowns
Ġdigging
olith
ĠResult
missible
Active
azo
~~~~~~~~~~~~~~~~
ĠGOP
Ġregulars
Ġinstructed
Ġfloral
ĠMirror
Ġislands
plex
variable
Ġdiscrep
Ġ93
Ġtranscend
Ġdolphin
ĠGrove
Ġcourses
Ġrelationships
Ġschematic
Modern
Ġ1901
utch
Ġarrivals
Ġ226
41
Ġcellular
Ġscratched
ĠSEO
Ġpaving
weed
Ġanarchist
Ġloss
Ġdraw
Ġeligible
Ġheavier
iliate
ĠJuda
^{
Ġhammered
*=-
Ġjails
Ġcyber
oons
obby
ordan
Ġvisible
Channel
ĠNordic
itor
Ġdomestically
ĠAccess
Ġstaffed
Ġadolescence
president
remove
DIV
Ġawait
00000000
ĠSyndrome
AME
Ġdonation
ĠPatricia
\'
Ġrepresents
ĠNob
edged
period
uddled
ĠEvents
ĠMehran
Ġdeviations
Ġcompositions
Ġperpetually
Factory
Ġmate
liner
asters
Growing
Ġchamp
Ġtracks
ilial
Ġlur
44
ĠWitness
Ġboost
Ġshr
ĠWat
ĠMah
Ġpiled
ĠLicense
Federal
Ġsane
Ġfunded
Ġpag
ĠComponent
ĠKeller
ĠHonolulu
83
ĠTampa
Ġhazardous
Ġsubstantive
Ġboil
444
ĠItems
visor
ĠCHR
ĠSergio
ĠMassachusetts
wild
ĠFreeman
Currently
Ġspiral
Ġproducts
Ġencounter
Ġbeers
Ġsimulated
Ġdepended
Ġlogging
Ġgasp
Ġcooks
ĠSpock
Ġdivers
vell
Ġmedian
Ġfacilitate
ĠMalfoy
Ġmechan
Ġpiling
ĠInvaders
ĠSkip
ĠHence
ĠKlux
ening
Ġunfor
ĠTheater
ĠAnti
ĠMcL
hing
Ġlacks
Ġcour
Ġgarn
Ram
ienced
Tree
Ru
inances
Ġ457
ignt
attery
ĠWB
Ġsong
Diff
Ġdifficult
ĠKirk
ĠScal
ĠHUN
ĠTrump
Ġsuspension
Ġsacrifices
Ġhearings
gz
2011
Ġemits
Ġshout
anged
Ġwo
Ġothers
Ġreeling
ĠStru
=-=-
ĠEither
oxin
fired
OT
022
Ġlick
Ġbound
ĠSutherland
Ġbailed
\
Ġsterling
Ġglobalization
Ġbunny
phrine
rise
gn
Ġassurance
idge
ishly
pers
aucuses
Ġshook
Ġ313
teenth
Joseph
ĠReyn
Ġundergoing
ĠNaw
iar
WE
Ġblasts
Ġprecious
ieu
ml
Ġlap
Ġfranchise
USE
ĠSeptember
leigh
would
Ġstatic
Ġhorrifying
Ġboldly
ĠVoyager
Ġsister
ĠChinese
Ġvisions
Judge
emic
yo
ĠPrest
Ġtheological
chev
Ġpredis
tiny
ĠBristol
Gas
PLIED
ĠTus
overe
ĠLooking
Ġveterinary
Ġsubmarines
Import
ĠVID
MP
ĠHur
atron
usable
Ã¯ve
Abyss
ĠKim
udeau
J
Ġrefund
Ġneutral
Ġmanure
Ġpee
ĠXVI
Ġbefriend
Ġpupils
683
uably
Ġmemory
}.
ĠMyster
article
ĠStra
Ġclassmates
Ġ(?,
Ġalliances
nes
Ġstrips
ĠLAPD
Ġoverloaded
Ġsoup
exc
Ġpornography
Ġshocks
Ġbrains
arte
Ġpoisonous
Ġmuttered
ĠPID
ipl
Ġunlimited
involved
ĠPortug
jj
ĠWit
instead
Ġsaline
Ġassure
ĠSERVICE
Ġperfection
anium
Guide
ĠFlorida
was
owder
Far
movie
Ġcounterfe
Ġ258
ĠDonald
Ġcivic
ĠRowling
Sum
,...
ĠRonald
ĠKernel
Preview
TPP
ĠMLG
ãĥĺ
Army
ĠLambert
(\
ĠCov
Prince
Ġpostponed
ĠLaur
ĠAlas
show
Ġdecides
657
Ġcheck
Ġlaz
Ir
ĠValent
ĠCage
ĠFired
ĠDeveloper
Ġcannons
Ġdebuted
Ġemployed
Ġcompost
ĠMr
ĠEurope
ctions
Ġwho
ocese
/*
ino
ĠAssociation
clinical
Ġperpend
Critical
Ġ}}
ĠHC
Ġabl
Ġcures
Stone
Ġlimits
ĠNDP
Ġris
orgetown
Fact
Ġ---------
Ġadventurous
Ġdatabases
ĠOverall
Ġnicknamed
amba
Ġprag
NOW
ĠiTunes
Ġconvict
Ġicing
Ġsheriff
Ġkeynote
ĠKara
Ġspir
ĠKeane
Ġsoaked
atio
Gaming
Tumblr
ctrl
ovich
Ġlawsuits
rification
gue
ĠGrave
Ġsadness
ĠProphe
ĠClemson
ossip
uncture
ĠSchmidt
Ġcompatibility
Ġconstructor
Ġhanging
ĠWireless
ĠAccording
ĠEmacs
Seeing
Ġobedience
Ġdeport
Instance
bro
Ġirony
Ġsufficient
iza
ĠSomehow
illin
ation
ĠThick
ope
hold
Scotland
Ġdisease
emporary
Ġnas
Ġdive
Ġdestined
Ġwetlands
Application
Ġdisciplinary
se
Ġnurturing
Ġ1897
Ġmarital
drug
Beta
ĠStud
Ġcommunicated
Ġnewfound
Ball
ĠNancy
smart
ĠSind
mers
owners
Ġabsence
pace
ĠGeographic
Help
score
Ġapproximate
Ġdynamic
metal
Ġ840
aming
Ġ157
Rog
Ġbite
ĠDeluxe
ĠHmm
ĠLeonard
ĠCanad
Ġalert
Jim
Ġachieve
ibling
Ġcollapses
auntlets
JSON
Ġprobabilities
ĠEli
Ġstorms
Ġleans
leader
iologist
orry
ĠLarson
263
Ġlicking
Ġtee
ĠRum
ĠCrest
Ġbuilding
Ġdefied
Ġkins
Ġdeems
Ġfuckin
parser
ĠCONTROL
Ġexchange
Ġperman
ĠChart
Ġcoupling
Ġarcane
Ġdepth
ĠEnhance
Ġpenetrating
Ġcats
KEY
incial
Ġdistressed
ffen
Ġniche
Ġquot
Ġ193
Ġrose
Hyp
Ġleverage
ĠClyde
Ġch
ĠAntiqu
ĠPanzer
venant
eor
ĠSTEM
ounces
ĠShang
pper
Item
ĠSwords
Ġgentle
Ġrents
itch
ĠGh
Relations
Ġaeros
ĠSle
ĠLuigi
Ġcontracted
ĠVenezuel
ĠBlazers
ADS
ds
Ġcandid
ĠFitzpatrick
these
ills
ĠWhoever
Ġconstituent
Ġsignage
Ġxx
Ġrequest
ĠLands
Ġconspiring
eteen
Ġrestores
ĠDrawn
Â¯
ĠInst
hs
Ġinspect
ĠVictims
ossibility
estyles
PP
âĢ¦..
Adapter
ĠSkydragon
Visit
ĠChand
Ġ395
ĠMaryland
gan
uts
Ġredistributed
Ġdesserts
industrial
ĠHun
Ġrefres
753
actus
Ġexperimented
ĠPolk
ĠIslamic
Ġexerted
ĠUnt
ĠTact
Ġcoun
Ġharmon
Ġpretext
Ġaccrued
ĠGeorgia
Ġconflic
Ġreside
Ġexpel
_-
joining
Ġincred
ĠBased
Ġnationalism
Ġbothered
ĠJed
Ġdrainage
abit
Ġcred
Ġunlocks
ouch
Room
ium
igure
Report
Ġsquash
Ġcourt
Ġlimitless
ikers
Paul
Ġstraps
usher
Campaign
Ġrouters
;}
ĠVolt
Ġgate
Cu
lisher
Ġballot
Ġvodka
kind
ĠWolver
ĠCAT
ĠLD
ĠRyu
Launch
Joe
Ranked
Ġwound
Ġmissiles
rection
Safe
Ġdaddy
Ġcirca
Ġ1863
Ġagility
Ġindefinitely
ĠMcDonald
ĠMaharashtra
ĠMusical
Ġdisappearing
Ġlovely
Ġintrinsically
ĠPresidency
ĠPrepar
Ġcollection
oak
Ġexempted
Ġlines
len
ĠPax
Ġpurch
ĠKeeping
ĠFormula
Ġdemocratic
Ġbet
Ġhue
Kar
ĠForce
Ġregulations
Ġmeets
naires
Actually
ĠCombine
regular
Ġstability
Santa
NB
Ġfire
Ġcerts
ĠSystems
Ġcolonists
Ġbatted
Ġsacrifice
969
Ġdashed
ĠQt
Pacific
ĠEchoes
ur
ĠPredator
ĠVand
ĠMelania
ricted
Ġwherever
limit
=-
Ġknockout
Ġurge
Ġsake
ĠIsaac
Ġaspir
Central
Ġinstance
Ġideally
Ġ747
ĠSpeedway
Ġdestroyed
ĠWorkers
Ġreasoned
ichever
raits
ĠLiqu
earance
ker
crete
om
ĠHuge
ĠNonetheless
Ġannoy
daq
Ġ"'
Phys
usha
ĠGAME
meta
Ġspiders
Ġnationally
Ġbash
ĠRoberto
essler
Ġ1893
ĠGospel
dinand
Ġdx
World
Ġdistur
Ġcoll
Ġpri
ind
Ġpounds
ĠBoss
Ġstripes
ests
Ġmids
ĠManning
Ġclusters
Ġdeductible
Ġmasculine
Ġfungus
Ġinserting
():
aito
--------------------------------------------------------
Ġissued
Ġpatience
Ġdeeds
Ġpoem
VEN
Ġdispel
pret
AFP
DF
Ġsorry
BUS
Ġceremonial
ĠMillenn
ohm
Except
ĠCommunists
irable
ĠCrunch
Ġ()
Ġhazards
ĠPharmaceutical
Ġdeclining
ormonal
ĠHelmet
hu
Rah
Ġ143
ordinary
onal
ĠChe
Senior
eller
Ġroad
Ġtreasury
Ġ
Ġbystanders
wire
ĠTrading
ĠTelecom
ĠPocket
Ġnorthern
aden
Ġtrad
ĠMong
Ġ:(
ĠSco
970
ĠNikki
Western
Ġlegitim
ĠLIKE
Ġhorny
ĠGrill
Ġmin
Ġescape
Ġsouven
stable
canon
ido
heed
uked
ĠAntonio
Ġstriker
Ġintrigued
Ġtweaked
Long
åħī
Ġprocessor
ĠCorrespond
Ġpriests
Ġsteer
azon
anch
general
opy
Ġdispatcher
Ġdearly
ĠRove
Effect
Ġprincipal
ĠSullivan
ĠRangers
Ġtended
Ġ1915
ohyd
ishops
Ġcups
002
Ġratios
Ġthreatening
Ġ123
Ġdeclaring
apt
ĠANC
Ġintentions
listed
Ġrisking
ose
ĠBast
ĠPrediction
PF
Ġrotor
Ġpossible
ĠScientists
Ġdough
Ġfl
Ġappreciation
Ġcentres
ĠDavies
ĠJaime
Ġearthquake
ĠLite
ĠAuthentication
Ġsubsc
haven
Ġmodification
ĠSoul
Ġflour
ĠMLA
ups
Ġtemper
ĠBerks
Ġhouse
ĠASC
ooming
rings
ject
Ġlac
ieve
Gs
Palestinian
iphany
Ġelectro
Ġphr
Ġclo
153
Ġdisappro
ees
ĠIslam
acer
Ġæľ
Ġexpectations
Ġrising
Ġelectronic
ĠSeal
ĠNAT
Ġ465
ĠIssue
ipment
ĠKare
Ġrotated
Ġ\\
Ġpropagation
Ġeasier
ĠDiana
oe
Ġoriginal
#$
ĠRaise
umbai
Pos
ĠMS
avers
Ġundermining
Ġderiv
Ġgon
ĠSQ
icut
Ġbitcoins
Bright
ĠMartin
Ġecho
soc
ĠEs
Ġmislead
Ġmapping
ĠNept
Ġcannabis
Ġdebut
Customer
Ġseized
ĠSlime
Ġastronauts
Kat
Ġcorn
Ġ32
ocker
risk
Ġcelebrates
Ġcod
ĠWolverine
Ġcraft
ĠInventory
Ġce
Ġresulting
lling
craft
ĠKiss
Ġgraves
iffe
Ġsigned
Ġpro
isl
inis
Ġkidneys
Ġhysterical
ĠNigeria
464
elve
ĠADC
Ġjob
Ġletter
ĠMacy
icates
Ġuphill
Ġincentiv
ĠCommun
ĠSELECT
ĠNVIDIA
ĠMini
Ġmish
ĠGym
oried
Ġflesh
araoh
ĠSentinel
bum
mx
Ġconnector
*,
ĠFANT
ru
ĠMichigan
Ġparticipants
commerce
Ġventures
Ġregistering
Ġdelegation
ĠDU
vind
co
ĠSty
Ġbegged
Ġsurges
Ġpunishing
010
Ġdomest
Ġefforts
ĠPun
amina
tsy
ĠTee
var
Ġhidden
796
ĠSetup
ĠNumber
Ġsubp
ĠPearl
ĠâĹı
ey
Ġton
addock
ĠEffects
ĠDo
ACC
Ġaccordance
une
Redd
Ġ298
Add
Ġmeltdown
Ġdescending
1007
ĠCrim
share
ĠUnity
266
destruct
ĠBF
ĠBul
Ġredes
Ġtossing
Ġcopying
eeper
568
ĠKremlin
Ġwards
Ġcoins
Ġstarving
Ġarrive
ĠWage
Ġstats
Ġlikewise
Ġquizz
ĠYour
IGHT
ĠCutler
ĠFleet
ottenham
ĠPast
ĠArmour
Äį
ĠAdd
stand
June
Ġdiarrhea
lear
ĠChron
ulla
Ġgossip
ĠIsa
coord
Ġemployment
Ġnationality
iring
ĠSMS
Ġpairs
ĠBrowns
ĠGuth
Ġperception
OWER
Ġimpair
ĠPsy
Ros
Ġdips
Ġperforms
Ġlieu
ĠPall
ues
ĠGum
Ġexcuses
ĠLCS
contained
Making
çĲ
Ġpact
ģĸ
Ġappreciated
atsuki
Ġceiling
NT
appointed
icating
brew
Der
Ġinterf
ributes
Ġinvest
Ġ2001
Ġ4096
ĠStarr
Ġdone
ĠGold
Ġdispatched
ĠPowers
Ġpresiding
ĠFloor
Ġ2
ize
Ġrelevance
995
Ġimplicit
Apple
ultural
Bound
alks
uggle
yright
onomous
Ġplaylist
reset
ĠMeteor
å¤©
Ġdeed
Ġconsumes
Ġconceived
roach
ä¹ĭ
ĠPo
ĠIch
Ġeminent
Ġbid
ĠStandards
non
ĠWaters
alyses
ancies
y
edd
Ġpartially
ãĥĥãĤ¯
ĠAmnesty
Ġrepublic
Ship
Ġtricks
Ġ111
Rule
Pri
Mut
Ġè£ıè¦ļéĨĴ
mortem
Ġcounselors
ĠSomali
Ġmet
ĠCW
ĠUnless
Ġrelocation
Ġ363
Ġcoverage
Ġvalued
umbles
ĠSwe
redible
Ġdrum
Ġassign
pick
gear
Ġspherical
Ġholding
financial
ĠFail
Ġgotten
Ġaux
icycle
cription
-+-+-+-+
Ġdeprecated
Ġprolet
ĠFresh
Ġmini
Cor
375
stress
Bridge
Ġenables
opes
cknow
ĠBroadway
Ġentries
Ġpulled
working
gger
410
Ġresisting
ĠAboriginal
ĠSilva
Ġ371
Desktop
Ġbelonged
Ġdwell
Ġprop
Ġmeetings
Ġprejudice
Ġcompose
Ġcyan
Ġexorc
pees
ĠAdvent
ĠProgramme
andr
Ġrib
±
Ġexpired
finder
ĠGordon
ĠGrace
ĠSark
ĠBarton
ĠâĿ
ĠSavior
ĠFalling
croft
Ġseason
Ġtakes
ĠUp
Ġtabletop
Green
Palest
Accessory
ĠSOLD
Ġglimps
Ġfruitful
ĠMus
Luc
culated
294
Ġchem
most
Load
Ġfell
aido
Ġconvicted
ĠFasc
Ġsector
Ġhandle
Ġ999
ĠSing
Ġanecdotal
Labour
ĠSLI
suit
ĠAvoid
Ġchassis
ĠDodge
Ġjarring
Ġbearer
icone
DEBUG
Ġverdict
ĠBernard
ĠOthers
Ġcharacteristic
ĠHits
photos
Ġdistilled
Ġcampaign
ĠPip
ĠMongolia
ĠCentauri
ĠPolitical
OA
Ġadhere
Ġproponents
ĠBrooks
Ġunder
Ġdelete
Game
ĠOri
ĠBorderlands
Footnote
Ġdow
cy
ĠÂ»
Ġexpenditure
Ġunre
Ġsignificant
Ġalbums
Ġlog
riend
ged
Ġthese
ĠKent
Ġsanctuary
ĠKirst
Ġsatisfying
ĠEdgar
Ġmessage
Ġidentity
Ġintervening
2003
Ġpalate
Ġ530
aution
ĠHop
ĠLevels
Ġconsciousness
Ġcongressman
Ġsummarized
leans
Ġmsg
ĠRNC
ĠWildcats
Ġ[(
ĠTheodore
liquid
Ġtrailer
icle
Ġsquat
ĠDDR
Ġ284
church
Ġvoyage
Ġ@@
Zen
ĠSakuya
ĠCho
Ġhostile
501
Ġerrors
Ġnoteworthy
Talk
bg
ĠOaks
ĠBayern
Ġvapor
Ġhighway
rest
Ġinch
Ġworrying
40
Ġcontact
Ġleaders
ĠRamirez
yth
Ġstranded
ĠSophia
Ġsuppression
consuming
odynamic
azine
Ġmomentum
Ġobjected
Ġpartic
Ġinterchangeable
ventures
hitting
ĠHoff
Ġ1861
illions
Ġscheduled
((
ĠLah
oric
Ġwears
Ġlot
Ġlegs
oun
Ġlicenses
Ġunconstitutional
ihu
ificent
aim
Ġbub
ĠMEN
Ah
Ġdiscussed
ĠGeo
Ġregulatory
alia
Ġsurfing
ĠMinister
ĠLegislation
cult
ĠUnits
Ġrespawn
Ġshipped
ĠExecutive
Ġalthough
Ġsheet
founder
ĠShore
ĠFinals
Ġupdates
Ġgamble
Ġtrolls
Ġbroadcasters
orset
ĠTech
Ġagony
igel
replace
ĠBun
uman
Ġgardening
ĠLTD
Ġalteration
zl
aques
Thanks
Ġbusinesses
Ġwholesale
ĠJennifer
iliary
Sham
antha
ĠProductions
Ġfuelled
Ġjudiciary
ĠSob
ĠSword
ĠTHAT
Ġcuriously
Ġgrapple
Ġmonth
uala
uple
Ġ760
Ġreorgan
435
Deep
ĠMalays
Ġstronger
Ġprocedural
oker
Ġcomplaint
ĠVisual
Ġtransparent
Ġdisruption
ilingual
Ġnotation
ATE
Ġplung
United
Ġshelf
ĠAS
ĠSantos
Ġthanks
ĠTri
growth
Ġmicrophone
AG
Ġfingerprint
Ġrubbish
Pal
Ġbitcoin
Ġapprehens
RR
Clark
Ġpronounced
Ġinteracted
Ġon
Ġdepictions
Ġundertook
ĠBullets
Ġprescribe
Ġthumb
Ġhangs
ĠColonial
Ġreclaimed
Ġ118
Ġrept
Table
ivalry
proc
Specific
illon
Ġdispl
Ġnat
ser
arbon
Ġdance
Ġbombs
Ġjoking
492
ĠCrist
Ġtagged
Vol
Ùħ
sta
ĠThailand
Play
ĠVO
Ġ({
Ġpose
\":
Ġ1982
Grad
Ġsq
POS
Ġatheists
urus
Ġimprovis
ĠDalai
Ġpopulace
Ġdistribute
efeated
ĠVictory
Ġincarn
ĠFreak
Ġcan
ĠMonths
acists
h
These
Ġchic
Ġrestrained
Ġcatchy
heartedly
ablish
Ġ('
Ġunions
Ġraided
ĠProt
ĠEzra
ĠSect
Ġ........
Ġoutput
Ġreserv
ĠGil
agically
Ã§
ĠThreat
Ġcrucifix
Ġcutter
Ġproposal
ĠDefendants
ĠKonami
Mobile
Ġcolourful
Ġassault
ĠFreddie
ineries
Ġ503
ESH
oving
Ġwealthier
poses
ĠSeeing
Ġtreason
ĠRBI
ĠSuperior
ĠMove
Playing
Ġdraft
Ġdat
Ġtreaty
Ġinvestigators
WI
asy
Whether
ĠPesh
Ġexisting
rs
Ġoutputs
Compare
Ġhun
ĠEmer
Ġattention
Sex
ĠFernando
Mist
Ġscoff
Repl
ĠDrop
Ġcommercial
ĠNormally
metics
Ġstreak
ĠSkies
Ġpatient
Ġmentioned
Ġundermine
Ġscept
Changing
LOD
ĠRobbins
Ġslug
efined
Ġexcellent
Ġoutrageous
Ġcontacting
Ġinsiders
Ġfragile
Ġdetach
ĠYugoslav
Ġsue
icient
Ġmount
Ġ2012
onen
Ġinsisted
ĠIvory
ĠIndividual
Ġplummet
036
ĠSPORTS
aft
âķĲ
uggage
ĠCaribbean
Ã¡s
ĠRak
ĠMorse
ĠMinimum
thus
Ġ1935
ĠBuddhism
ternal
ĠAuth
WS
Pure
inging
atible
Ġsettling
ē
ItemThumbnailImage
heter
Foot
Ġmanages
ergus
Ġtunnels
Ġnewcomer
iso
Ġadaptation
Ġpunk
ĠPoker
Ġdiarr
ĠBehavior
ĠâĢĶ
Ġinsulation
ĠCombat
ented
illance
ĠNiet
Dialog
Ġvending
bh
Ġequals
changes
ĠHR
ĠStephanie
ĠCarlos
pressure
Ġdry
Ġwatering
umer
Ġdated
HY
Think
ĠUNDER
ĠDraw
Ġunl
ĠRemy
Ġevolves
Ġbiomass
Ġrecol
Ġtransforms
Ġneeding
Ġdefense
727
itation
ĠThieves
Ġextra
tec
Ġlauded
Ġ1840
ipeg
monkey
ĠLv
cv
Interestingly
çī
ĠClicker
Ġcarbohyd
Ġintervened
gon
Ġtells
Ġremotely
Ġlink
Ġgenesis
Prin
cribed
ĠZach
An
cent
Ġrare
Ġbeverages
ĠTex
p
ĠCampaign
ĠThroughout
ĠGim
ĠPryor
Ġbeloved
osed
Second
OUNT
ancing
SM
ĠAdminist
Ġscaff
drop
Ġpartnerships
ĠOrche
haps
scill
Pass
ĠMarketplace
ĠIndonesian
ĠTriangle
pict
ĠSpaceX
incoln
dar
Ġir
issy
ĠIU
ĠBore
Ġpow
ĠShiva
Ġdownright
ordial
Ġappl
Ġrefuses
ossible
ĠStamp
++++++++
Ġsurprising
ãĤ¬
Ġmole
cence
Ġrealism
Ġdismissed
Ġcards
Ġsoundtrack
Ġexhibited
Ġmastering
Ġmound
kHz
Ġaccurately
Ġrehearsal
Ġneglected
Âº
ahon
engeance
ĠBurger
ĠTrans
59
Ġcompares
ĠCrisis
Ġdrummer
alone
ursed
Ġshrugged
rocket
ĠGri
ĠResistance
jam
Ġsporting
Ġbiodiversity
birth
Ġhyper
Ġcrib
REC
Ġsalmon
Ġfirearms
209
Thor
icago
ĠAgricultural
ĠKR
Route
quartered
Seriously
one
Ġ//
Ġsv
Nit
ĠUTF
ãĤ£
ĠImm
Ġsurvivor
ĠSK
rint
ĠRemix
Ġtmp
Ġleaf
Ġchest
ĠMillennium
Ġdrops
ĠCLE
Ġeducator
ĠMarch
British
ĠÃĸ
ĠSimpsons
Ġchase
lime
ELY
ĠWasteland
ĠLeague
ĠTAMADRA
ATH
Ġkisses
olitical
Ġbruising
ĠWR
Ġmonopoly
trained
Ġ245
Ġloosely
Ġwitches
ĠYoshi
ainer
Ġfilming
ismo
Ġshorts
oves
Ġupstairs
ucing
Ġcoercive
University
Ġtightened
Ġglorious
ĠHum
ĠESA
looking
ĠOttawa
ĠCiv
81
Ġcigars
Ġlivelihood
aj
icult
ynthesis
Ġacquainted
Ġunnoticed
ĠFlores
ĠBon
Ġharvest
Ġseizing
ĠRookie
ĠToys
STER
educated
rieve
Ġgu
Ġgoofy
Vill
ĠBeet
Ġvolatility
float
ĠKahn
Ġnational
Ġhighlighting
Ġpitchers
Ġcrush
field
ĠSlack
=
ampa
ĠScripture
unes
anian
Ġsushi
Ġflowering
ustration
Ġstreetcar
Ġcover
speech
oyle
ĠNicarag
ĠNerd
Ġkay
card
ĠUbuntu
ĠJapan
ood
ĠMa
ĠArt
Ġsucceed
anticipated
rome
ĠPeyton
Nik
Mit
ãĥĥãĥĪ
Ġ)))
Ġdoctor
Pol
State
ticket
PC
ĠPin
positive
Would
ushes
Ġboiled
ongo
Ġseat
ĠMul
Ġlicence
ĠConsidering
ĠToy
ĠMoreover
Ġenrolled
VE
ĠLeslie
Ġtrump
Ġatrocities
Ġshutter
Ġraped
Ġconfirming
ĠPurs
Speed
Ġteaspoons
Ġ504
Ġpads
Ġdemeanor
855
Ġinnocuous
Ġattacked
Ġsuited
ĠFoundation
ĠTestament
Ġmulti
conom
Ġdanced
ĠOccupy
Ġglimpse
149
ardless
-----
ĠDRAG
login
Ġresidence
Attempts
Ġreperto
NULL
Ġselectively
ĠFULL
ĠLonely
ended
ĠCalifornia
author
omore
ĠSOS
Ġfortress
jriwal
TON
Ġdetractors
----------
ĠSex
Ġ2010
ãĥ©
ĠArchangel
Ġdecided
ĠApr
Ġsecretaries
ĠHick
yden
ĠHoo
ĠRobo
ess
Ġbattling
Ġconform
mic
Ġslides
illation
ĠParan
Ġmoving
Ġtorso
ĠSomebody
ĠSher
Ġoun
ĠRaven
incarn
ĠVarg
Ġinmate
Ġwarehouses
ĠFunk
ĠCDs
imilar
Ġfing
Ġnifty
Ġscen
ombat
ĠTracking
Ġentertainment
ĠSingapore
Jo
letters
fficiency
Rober
Ġguiding
Tom
ĠWeekend
ouri
ĠDalton
With
ĠHay
Ġmedical
ovan
Ġshards
ificate
HHHH
rely
ĠMilwaukee
Ġbroadcast
Ġoz
secut
ĠIF
iate
Ġost
ĠDungeon
ĠReserve
itors
Ġvot
ĠMIL
tenance
oft
Ġassociation
Ġoffensively
Ġsailor
Ġgrowers
ĠLONG
ĠPlayed
ĠMic
ĠHudson
ĠChin
ĠCheng
Ġsurviv
ĠHDR
Ġframes
Fun
Ġrepresent
ulsive
sp
ĠShannon
Ġmont
letico
ived
ĠJ
home
ĠPaper
Ġtoilet
ceans
Ġscathing
..."
ĠNaz
ĠRhino
ĠGeek
Ġsubversive
Mult
Ġbiblical
atown
UCK
Ġdecad
ĠReporter
Ġdisabled
Ġmillennium
iage
OG
Ġpressured
ezvous
Ġcreator
Ġvocational
emn
beaut
fc
Ġsuc
ophen
As
matched
Eye
{\
maps
Returns
AAAAAAAA
ĠViet
ĠIdeas
ĠSpirit
Ġgag
Further
Ġprogram
lesiastical
ĠLob
Ġdiseng
Ġtaped
ĠTHREE
ĠJelly
Apr
ĠAbsent
1974
Ġblock
ĠMalik
ĠKnight
leaders
Ġupright
Ġarch
177
ĠNAME
ĠCameron
Ġlin
isodes
Ġquantity
Timeout
ĠFalcons
ĠPay
ĠMichael
ĠElectrical
Ġneighborhood
ĠEden
Ġpup
ĠpH
ĠXL
ĠRalph
ĠCLS
Ġsafer
Jay
Ġsmashed
Ġrefugees
Ġsomeone
Ġgenius
Ġfrost
Ġacts
Ġgrievances
ĠOffer
Way
Ġinternet
Ġentertaining
Ġautomobiles
ĠFinancial
ĠCalled
wana
Ġnickel
100
Ġbucket
Law
Ġbutterflies
ĠFriendly
Blood
Ġflushed
ophon
Job
Ġdragon
Ġdinosaur
aghetti
ĠSu
Ġvacuum
ĠRut
ĠNokia
ĠAdventure
ĠVarious
Ġnonpartisan
llah
introdu
ĠGift
Ġfan
kun
Ġworkouts
Ġentangled
Ġchap
Ġproving
ĠTrotsky
HT
Ġradius
urated
ĠHuff
Ġhypothal
ĸļå£«
ĠMed
Ġphoto
§
ĠUntil
Ġdate
ĠJupiter
Ġtowering
Anonymous
252
Ġsend
99
ĠMick
Ġchees
ĠOre
Ġrefinery
Ġdisclaimer
lee
ĠZIP
posted
ĠGuant
domain
ĠPerse
Ġliberties
Ġst
ĠAsh
ong
Ġfewer
ĠiPad
ĠJoy
ĠJudy
Ġexport
Will
Ġinvoluntary
ben
ĠStre
ĠHat
Ġunfortunate
ĠRocks
ĠEston
arat
ĠConc
Ġsquid
Howard
ĠCoffin
Ġhonest
Ġuntrue
ĠRadius
Ġposture
446
ĠRehab
ins
Financial
ĠClown
Ark
ĠReferences
Ġtruly
zbollah
puter
ĠMerchants
âĢĭâĢĭ
ĠSenator
Ġfulfill
ĠTelegram
_____
Ġhunts
cache
Ġ+---
dos
spe
Ġformats
62
ĠCortana
pmwiki
Ġpp
Ġpowers
ĠLinkedIn
Ward
Ġmainly
ĠCyan
Ġrugby
cli
Tags
Ġdownhill
ĠViktor
ĠCind
artney
ĠBobby
Ġabundantly
Ġtwice
Ġstatically
Ġcommuter
Ġstall
ain
ĠWil
ram
owski
Ġscheduling
Ġprote
ĠAnch
Ġstrip
Ġrupt
ĠInquis
ĠUE
Ġsemblance
immune
âĢ¦]
Ġunderwent
ĠAH
Ġtacos
Ġdemoral
ita
ĠWeber
ombo
+.
Ġeffected
Ġsoftware
ĠRecession
Ġooz
Ġskate
Ġcosts
ĠSnap
Ġ',
Ġforest
Ġnowhere
iii
ntax
lit
ĠXia
ĠHarmon
GH
ĠAbd
Ġprotected
Ġbrutally
Ġbob
ĠSuperman
abi
Ġdescendants
Design
appers
Ġlesbians
keepers
ĠSilk
Ġcompan
Ġear
wan
Ġmotivate
Ġparticulars
udic
ĠMellon
Ġfoot
Ġpinnacle
ĠBring
Ġresize
ĠFernandez
ĠRecord
auto
ĠMut
Ġ+/-
Environment
iator
tick
Ġinterpret
Ġvaccination
Allow
ĠPoison
Phoenix
Officers
Ġunc
ĠRenaissance
Ġgr
Ġ201
mom
Ġunlawfully
Ġtenth
Ġtile
Ġ234
Ġgrandson
ĠPos
Ġforfeit
Ġdownt
ĠAle
Ġgenerally
ĠTeg
esthetic
Ġcass
ĠAxe
Ġaccidental
fund
026
osite
ĠDemo
pd
edit
::
ermanent
Ġtransm
Ġheap
ĠSounders
ĠSonia
istan
ĠRandomRedditor
Ġpayday
Ġcorrespondence
Ġarmy
ĠId
Ġbattered
ĠDON
ĠGenie
Ġdonated
ãĤ¦
ĠGlass
mal
ĠVer
Ġintact
Ġremarkable
Cs
POL
707
Ġobscure
Ġintegrate
server
iblical
By
ĠPengu
ĠHort
)âĢĶ
core
Night
VERTIS
Ġpaint
Ġfug
Ġcpu
Ġbodies
Ġsimultaneously
ĠEarn
Ġsto
ĠQuestions
Ġexited
Ġping
Ġtul
cut
Ġcivilization
agonist
ĠTakeru
ĠAph
Ġsands
Ġeager
327
ĠEternity
ĠWatch
hardt
ĠGonz
ĠBundle
Ġrestrictions
rarily
Ġartif
ĠJonah
Ġprinc
ĠCBD
ĠYep
ĠEN
Ġprejudices
submit
Ġstraightforward
ME
idel
ĠUSA
51
ĠCN
rans
ACP
ements
platform
Ġdeforestation
Ġ1830
scan
ê
ĠBudget
fly
ĠRah
ĠPrometheus
Ign
out
Ġattribut
ofi
ãģ
Ġoath
Ġsouls
Ġpaddle
Ġ277
psons
Ġsurgeon
ĠZo
Ġantidepress
Ġconfusion
Ġadversely
Ġupgrades
LS
Ġphysics
ĠGovernments
Road
ousands
Quite
ĠFri
ĠSiber
Ġtion
ĠPacers
ĠPhilip
ĠLag
Ġparaph
771
Ġyield
Ġbloggers
Ġeverywhere
Ġartificially
Ġobjection
ĠZombie
Ġconceptions
uler
artifacts
ĠCPU
Artist
Ġcommands
Ġpoisoned
ĠYaz
Ġcaller
Ġpointless
Ġunderworld
Privacy
ATA
æĪ
Ġbrightest
Ġcartoon
Ġleaflets
Ġvision
ĠFur
ĠWORK
ĠPresents
rating
ĠEnterprise
Ġunrecogn
don
Ġcharter
Debug
Ġcreditors
Ġbackfield
Ġrefin
ĠBeh
Ġpigment
odo
Islamic
ĠAwesome
ĠRebirth
ãģ«
emouth
Ġfastest
Ma
EM
Ġidiot
Ġjams
uay
OLOG
ĠSpartans
Ġexperimental
ĠCardinals
Ġestablishing
Ġlows
Ġrust
Ġpredictably
Ġdisagreement
thal
ĠGentle
ĠExhibit
ipolar
Ġprivate
55
SA
Ġnic
Ġconstruct
zes
Ġvibe
Ġcolder
includes
Ġreiter
Ġalike
Ġstricken
mittedly
681
Commercial
boat
Wik
ly
pecially
Fourth
Marginal
Ġfixtures
Ġautopsy
Ġmarines
ĠDag
ĠDOT
ĠPetroleum
Ġwood
Ġadjoining
Ġgoodwill
Ġupt
ĠBug
ĠReserv
indle
ĠCaleb
amate
Ġberth
ĠKid
ĠMMA
Ġuseful
iped
scar
ĠCrypt
Ġupon
Ġasthma
ĠClub
Wild
Ġdistributed
ags
ĠNano
ĠEVs
Ġrevolves
ĠGDP
"...
Plan
omez
Java
Parts
ĠFounding
Ġupgrading
Ġdocumentation
ĠCalls
Ġadrenaline
serial
Vict
production
MHz
ĠThis
Ġtank
Ġerg
Ġles
Hand
Same
ĠSpoiler
urai
ĠAssy
omorphic
ĠPAX
Ġsubreddits
olds
induced
Ġstout
lyn
Ġheading
ĠBlu
ĠCreed
1970
Ġaccustomed
ETHOD
Ġobsession
Mod
ĠVenezuelan
Loc
Ġhourly
Ġappearing
ĠWi
ĠAzerbaijan
wright
ĠSev
wyn
222
admin
ĠHOU
ĠMBA
ĠMeditation
Ġreconcile
af
Ġvictory
Ġcompact
IBLE
Ġirritation
ĠAscension
Lim
incinn
Ġyard
ãģ¦
".[
Only
Ġsmoked
Ġ/**
Ġlungs
Stre
ĠLogo
ĠTens
Ġshri
ĠNavigation
ulp
interesting
ĠExpansion
Ġfueled
ĠErd
ĠHeather
us
Ġaggression
ĠSigma
Raw
ĠEPS
ography
uzz
ĠHaram
ĠFIG
Ġaston
ĠCannes
rench
Ġdeepest
trial
leys
Ġ1985
Ġfrontman
Ġexisted
Ġtotem
lys
>,
Admin
ĠTJ
Ġchicken
Ġdedicate
Ġspaceship
ðŁ
dro
Ġsalad
Ġonboard
ĠNPR
ĠSOME
Ġreconc
Ġroyalty
imaru
Ġmove
ĠBout
susp
ĠLimit
ĠManson
Self
Ġtrunc
illing
ĠNotre
ota
ĠNetworks
Ġspo
,'
nant
Ġentitlement
Ġbackstory
Ġsuggestive
TPS
levels
ĠAutism
tale
ĠGraphic
:]
</
lb
Ġvibrant
Ġtravel
Nobody
acons
ĠCaval
Ġoper
ĠMaximum
Ġadvising
Ġtrick
acceptable
Ġimplicitly
acket
Ġobserved
unsigned
CF
uka
Ġimperial
Ġpoets
ogyn
ĠAmb
new
ĠDayton
uo
Ġcaching
micro
otti
ĠASAP
Ġcredits
Ġbicycle
Fac
Ġacidic
Ġspecialty
Ġapproach
icky
Ġd
ĠDirector
Race
ĠPhillip
Come
rill
Ġcanal
humane
Ġcamp
,''
ĠCalling
ĠDon
Ġbleed
iff
ĠCat
Ġcondol
idepress
Ġimposes
ze
Ġentered
ĠMartial
»
Ġpleased
Ġcast
ĠKitt
stem
acus
Atl
pointer
ĠVice
ĠFire
aves
ĠProceed
ĠTend
managed
venue
Ġauthent
Ġcontemporaries
Ġsliding
Ġconsensus
nostic
Ġsubmer
ensional
Ġforecast
Ġjoined
olly
ĠBonnie
Ġincidence
ĠConstitution
Ġfrank
Ġtickets
ĠBhar
Ġmend
Ġoutpost
Ġdemon
ĠWife
£
Ġrefers
icks
Ġboarding
ĠGrab
Ġdormant
Ġarrogance
Season
UGH
infeld
ĠBrach
ĠRagnar
Ġcovari
Ġvalleys
ouls
Ġgrooming
ĠRivera
ĠMunicip
Ġsuppressed
';
De
ĠBash
sum
ĠGolden
ĠHard
Ġagreements
Ġide
Ġwatches
ĠCitadel
Ġmisogyn
itialized
ĠBrown
Ġpremise
Ġhometown
Ġjuvenile
press
Ġcu
Ġtaxis
cedented
ĠStim
ĠBIT
Lex
Ġweaken
Ġtribute
Ġ",
ilateral
utsche
reated
entin
Ġconsumption
ĠZa
ĠYah
Ġdiving
Lisa
Ġown
Ġendemic
ĠIdentification
wy
ankind
ick
Make
Ġguarantee
ĠCOM
aunder
ĠRec
middle
WARD
holy
Ġconsuming
Ġpy
Party
Ġtransitions
carb
ĠGriffith
ĠTODAY
Ġfigured
Ġpaintings
ships
ĠWhip
ĠChamber
Ġdiscard
ĠFRE
Sound
Wi
Ġculminating
ĠSignature
Ġlinguistic
Ġgateway
ĠWool
Ġmedal
Ġanalytics
Ġmicrobial
ĠGiant
ĠMOR
Jones
charges
Ġbrushing
scribe
ricane
ĠguiIcon
ĠObjective
Ġbracket
HAHA
Ġretract
quart
Ġceleb
0000000
Tea
Ġwhim
Ġseek
Ġdisg
aki
chair
Ġhers
Ġheadlined
ĠGarfield
Ġbitterly
Ġenjoying
AUD
Ġshortages
Ġstyling
Ġfrom
Ġmainline
aaa
Ġfierce
asive
Widget
Ġgreet
Ġadore
Ġmaxim
outhern
ĠGABA
KA
Ġmort
ĠKris
Ġinterchange
Ġumb
Ġvillages
ĠMode
Ġreconcil
Ġdamaged
Ġimagination
Related
Ġfigures
Ġolder
annon
Ġprizes
Ġmissile
ĠBelg
ĠMatte
Ġstaffer
ĠConway
Ġscreened
ĠChel
include
ĠBros
cing
)
ile
FACE
Ġadvertisement
Ġminimize
Ġcapacities
ippery
Ġrefuse
ĠWWE
Ġbreaker
ĠDill
Ġcivilisation
ĠPossible
NY
dust
Ġintricate
ĠOperating
ĠMcMaster
AT
Ġwhom
Ġdefending
arent
Ġhypothes
IDE
Ġaccord
Columb
ĠSkill
Ġplayable
orescence
JA
aper
Here
Ġpushes
llor
ĠJonathan
Ġstrawberries
TW
Ġsequest
Ġ60
ĠJail
inary
Ġexhibits
ĠTyler
Ġdisability
604
ĠSchwar
aud
Ġdenomin
Ġconfig
ä»
avy
Ġtolerate
enged
uctive
ĠDexterity
ĠCluster
Ġmetic
opolis
ĠVault
elines
emonium
fold
buster
WER
ensable
496
Ġgenuinely
assin
bestos
Ġnamespace
ishi
ĠWarrior
ĠAbbas
type
Ġstrategies
Ġcensus
ĠSteve
ĠSoutheast
ĠGC
necessary
Ġedits
Ġsuperb
Ġesche
Ġyoutube
574
Italy
roups
ĠFaction
ĠChronic
Ġpione
ãĥ´
Ġcamping
Ġformulations
ĠAmeric
Ġsixteen
orm
Boston
Ġes
ĠHernandez
fetched
Ġtou
Ġhealer
ĠCelest
rm
Ġilliter
rawler
ĠOb
cake
ĠAMA
cko
Bott
ĠHumans
Ą
uffs
Ġsightings
chini
ĠAoE
ĠTMZ
Ġhorses
Capital
Ġsnug
ĠTurtle
Ġalternate
ä¿
mentioned
Ġfresh
emia
ĠNOTICE
ĠWa
taker
Ġrapt
elt
Ġunlock
Ġ-
ĠWildlife
particip
sembly
Ġimplemented
Ġguitar
ĠkHz
Ġpraises
Ġlisted
Ġcrowded
ĠHon
LET
ĠFlame
ĠHedge
Ġshifted
Ġ2400
æĥ
ĠLibraries
igating
landish
á½
âĢķ
atable
Ġcontingency
ousse
Ġvaguely
Walker
Ġundergo
Ġbordering
Ġundercover
lihood
ateg
Ġmana
]]
Ġhelicopter
Ġmotorcycles
btn
ĠKarachi
Ġforb
Ġcorrelate
imming
mire
fn
ando
Che
rar
ESPN
ĠKessler
Ġcrimson
Ġautumn
Ġpreach
Ġambiguous
2015
Ġprett
unction
Ġclimbing
ĠArgon
Ġcoincides
Ġlyn
Ġrudimentary
ĠProtect
Ġrelease
Move
Choose
ĠFavor
Ġtrips
Ġ===
allo
Ġtho
ĠConsole
Ġsoc
Ġpowered
Ġcounted
306
aka
Ġun
ĠBethesda
Ġnarrator
%%%%
Ġcrooked
Ġeste
Ġscene
Ġhereby
Ġback
isers
Econom
Ġeternal
),
ĠCes
ĠDestroy
Ġki
ĠGlobe
Ġattracts
Ġpleasing
Ġdescribed
ĠClockwork
Ġboulder
ĠNab
htar
Ġ9
pressed
Ġoceans
ĠKant
Ġdivor
iki
ĠSenate
ĠPerform
Ġrecognizing
ĠLegend
Ġtimeframe
Ġ396
usional
cross
Morning
ssl
Ã¶n
Ġcaricature
ĠIOC
wei
Ġsymmetry
UB
Ġconceptual
rab
Arm
Examples
ĠCaptain
upp
Check
Ã¨re
Ġremake
Ġplaintiffs
ĠKhal
ĠLyndon
Ġpatriot
ĠMoto
Ġeighteen
Ġpeek
ces
Ġaborted
ĠATL
Ġti
Ġdisco
ĠINF
ĠDistrict
Ġpegged
required
Ġvolunteering
Ġhigher
Ġ1918
Ġspar
ĠBakr
FIR
ĠNeuroscience
Unit
Ġvisc
Ġadvised
ĠDish
ĠChaser
("
996
Ġtumble
Ġveter
ĠTrailer
ĠRJ
Skip
ield
ĠPilgrim
Ġ281
Alabama
Ġpassed
Ġtrusting
Ġmiracle
ĠConsider
axe
writing
Ġmarqu
Ġinvol
Ġplat
Ġreferrals
uch
Ġpoised
Ġpropag
iscover
hair
ĠRadical
ĠKings
KE
ĠIntroduced
522
Ġrivals
Published
Wikipedia
ĠSanctuary
ĠDre
ĠEff
Ġacquisition
melon
ĠAlthough
Ġexempt
Ġparamount
isans
ĠRaphael
ĠHuman
NS
Ġleveling
Ġsag
Adams
Ġtur
Ġ1989
bath
Ġpopulations
illes
dose
orted
iter
Ġops
Ġ348
perors
Ġadjunct
Ġmarijuana
ons
existing
Ġquake
Ġmiserable
Medic
Prev
ĠJal
alle
OTUS
ĠCentre
ĠMovie
Ġtc
atory
ĠNieto
Gun
ilibrium
fall
ĠSeriously
ĠBlaze
Ġchore
Ġpacks
Ġcapita
ĠMadonna
ĠRanger
Ġfav
Ġredist
ologist
Ġneedless
Ġrud
chrom
/,
alys
ĠBh
RAFT
ĠInvestors
Ġwondering
ĠCa
ĠOsama
Ġspread
Ġseams
ĠGlacier
Ġabsorbed
JECT
Ġ66
Ġlaced
Ġmantle
plug
ď
Ġexagger
Ġprejud
Ġfreshman
ĠCeltic
Ġpolicing
door
Ġamended
éŃĶ
Ġitiner
Ġsle
ĠSeas
ĠSTL
rough
Ġunprotected
Ġpossessed
Ġpassive
ĠSupply
ted
Ġconsecutive
Ġdecor
ï¿½ï¿½ï¿½ï¿½
iler
Ġyellow
ĠFamilies
Ġapprehend
ĠWebs
Ġ163
Ġonline
ĠFargo
LD
Ġlou
Ġscholarly
Ġhepat
Ġwooden
Ġround
Ġunhealthy
lol
ĠWash
Ġdifference
Ġyoungsters
Ġretarded
github
Ġ911
ĠPlaystation
Ġtraject
Ġconfigurations
ĠCheryl
Ġaccused
ĠDRAGON
ĠDefendant
Ġassurances
amazon
Ancient
Ġconvincing
ĠLama
Ġphysiological
ĠPriv
Ġoutdoor
gen
Ġbehind
<pad>
Ġspiritual
ulations
Ġstunts
eyed
remote
ĠTall
ĠDecl
ĠHonest
fam
ĠSwamp
èĥ
Ġleaping
Ġrecogn
binary
Ġsewing
CL
Ġhated
Ġunexpected
Ġscattered
ods
ĠâĶĤ
ele
Us
Ġdismiss
CIA
Ġbri
Ġagain
Ġsometimes
nom
ĠKurdistan
ĠSpiritual
Ġhorizont
compl
Ġnotifications
bourne
Ġdeveloper
ĠCons
Ġdelicious
ĠFootball
ĠSimone
Ġpatients
ucked
Ġsearch
ĠGujarat
ĠDaryl
heric
sort
ĠSr
Ds
Folder
âĸĪ
Acknowled
Note
Ġexcluding
ĠPublished
Ġgas
57
pai
ĠTart
ts
Ġnurt
ĠEthics
board
1998
Jordan
ĠDecre
Ġconfirms
Ġherpes
Ġsolidly
Ġrepeatedly
ZE
Ġdiscrete
Ġgreat
Ġjewelry
utive
Ġpolitic
Ġorchestrated
lest
ionic
Changes
Ġexclusion
ODE
oted
ĠAcademic
Ġprogress
Ġamino
regn
ĠHarley
ĠSem
Ġyak
METHOD
Ġimportant
Ġdemonstrators
aclysm
ĠBerger
Ġboy
Ġtelevised
Ġtraumatic
Ġbasically
Ġdownward
ĠRavens
const
Ġinjections
Ġaudiences
Ġpersisted
dl
ĠPortsmouth
Ġchrist
Ġtum
ĠBarth
gap
ober
Ġcontemporary
Ġadmits
ĠFarn
Ġclipped
cery
Ġinteractive
ophysical
aur
:
Ġanalyzed
Ġresembles
Ġoxide
412
ĠPaulo
Ġrichness
object
Civil
ĠSox
itted
ĠHorizon
Ġ89
Ġadditional
Ġcol
ĠLIB
Ġdetectable
ĠRomantic
ĠCincinnati
ĠÃł
Ġclarify
122
Ġcompanies
Ġgently
impact
Ġdevelopments
ĠEngineering
ĠFM
Really
ĠHandler
Ġcentr
astrous
Ġmovement
Ġunquestion
ĠParents
instance
Rad
ĠNEO
Ġdiligently
669
Ġtut
roit
Ġcertified
ĠVacc
ĠGarc
Ġbrig
Ġsuprem
ĠBucket
ĠUnsure
Authent
CONCLUS
Ġwherein
closure
ĠWalking
ĠNike
ĠDepending
5000
ĠPediatrics
ressive
Ġreefs
adays
Ġhire
Sport
ĠToo
Ġtorn
Ġexports
Ġdescribing
ĠSustainable
lower
Ġnutritious
draft
Ġoverboard
ĠRutherford
Ġdeparting
Ġnarratives
Ġreaching
Ġgratification
ĠDin
752
ĠDarkness
Exp
nexpected
Ġmaking
io
Ġrapist
Ġpelvic
th
Ġdispers
Keys
ĠGPS
672
ĠSuppose
Ġowned
Ġspacious
ĠGround
Ġlively
ĠYor
161
Ġcontamination
ĠAfghans
istic
Ġturning
Ġopponent
ĠBRA
Ġweep
pac
Ġhyd
Ġtirelessly
Ġwest
Ġstaples
Iran
ĠShu
293
cephal
opoly
Ġsalvage
Ġgamb
Ġexclaimed
ĠMedian
rl
ĠFedora
ĠCosmetic
Ġingestion
ĠOfficers
ĠCommon
umble
ĠTiffany
ĠDOJ
ĠUnlimited
Ġ219
Ġlouder
rentice
Ġtoken
ĠRebellion
Ġusual
Ġta
Ġheld
ĠKon
Ġfres
Ġpioneered
ĠAlive
Ġang
ĠDAV
Ba
ĠBid
ĠStarting
ĠTy
ĠProcess
ĠCoconut
Ġassigns
Ġfurthermore
Ġinhibits
ĠKiw
Ġnecks
ĠATI
ĠPope
ĠCLR
Ġneighb
minecraft
ĠÂłÂł
ĠExtend
ĠRudolph
..................
Ġengaged
Ġboards
ĠGareth
Ġpoles
INO
Ġunthinkable
map
ĠInvestig
Ġpeasants
ĠACE
Ġnegoti
Ġlust
Lin
Ġtranssexual
Ġfoe
å®
ĠLeicester
Ġfacet
wiki
Battery
åĩ
ĠERA
failed
ĠEnforcement
Ġparticip
ĠDV
ĠCannabis
edge
é¾į
Ġparcel
IES
Ġstret
ĠFly
Ġnominating
eches
Writer
Ġprojection
ĠMagnum
ĠInvestigative
ĠLook
>>>>>>>>
ĠKaw
ĠMIN
American
atonin
TING
Ġsect
ĠTO
Ġcharism
Ġsharks
ickey
ĠScale
ullivan
Ġcollectors
Ġonce
ury
Ġendorse
Adv
cand
arter
encers
Ġconsisting
ĠNoise
Ġcelebration
Ġprod
Ġtrafficking
ĠAnalytics
inators
Ġcavity
Atlanta
Ġpredominant
Ġactually
Ġenterprises
Ġexpose
Ġcater
anic
Ġcaptives
ĠFML
dylib
Ġregarding
Ġtablet
ocial
×ĳ
Ġcite
Ġ222
im
ĠCitizens
ĠPend
102
Ġpens
ĠCommunity
aq
moon
ĠLuk
ĠWorcester
Ġscarf
Ġheadlights
Ġnort
Ġrefinement
ĠLeigh
adiq
ĠXue
ĠCoral
Ġrailway
Ġsanity
ĠInterface
Ġdynam
helial
ĠBeatles
Ġinspected
ĠLU
Tickets
ĠWells
Ġgratitude
Ġguides
Baby
ĠLori
ĠTot
Med
Thomas
ĠFunding
ĠRubin
Ã§a
Property
ãħĭ
ittens
ĠCharlie
Population
Ġ40
ĠAg
Ġinflux
ĠStur
ĠDual
ĠRadiant
Ġclimax
nesota
Ġhom
agonists
ĠBlackwell
Ġproliferation
ĠVanguard
rition
ĠConservative
Ġ."
ĠSie
ĠAmbassador
ĠKnox
ĠSai
Berry
7601
eh
Ġslew
2005
ĠTam
Sony
Ġtrope
Motion
rers
Ġaccompanies
Ġupdate
system
Ġrouting
ŃĶ
Pa
Ġwoes
ĠAdvocate
ĠMandela
val
Ġstamped
ĠCollins
Ġshift
ederation
ĠTe
oor
ington
Ġdefinite
monds
Ġuseless
Ġslut
Demon
ĠColin
Ġdesper
Ġls
870
Ġfinished
Ġinsights
Ġcurls
Ġsuggest
ĠRUN
bringing
inates
Ġranges
ĠPam
Ġaccumulated
Ġrespected
ĠDarius
Ġridicule
ĠWinning
Ġroom
ets
Avoid
Ġendorsed
Ġâĸº
ĠProfit
azel
Asked
Ġsubdu
Đ
ĠFighting
-->
ĠRed
owment
KT
uclear
oscopic
ĠDra
Ġdigest
oint
Ġescaped
Ġultrasound
gments
Claim
ĠTale
Ġwe
ĠSeth
orically
Ġend
Ġstarch
ä½¿
nice
ĠW
ĠWestminster
Ġwaged
Ġidentities
Ġbeans
Ġthugs
Ġ27
Ġownership
ĠWaterloo
ĠOscars
ĠMae
ĠFolk
337
ĠENT
ĠCharacter
Ġdeline
Ġslicing
Ġsubsections
Ġcharismatic
ĠSith
runtime
ãĤŃ
Ġallegation
essert
Ġcorporate
Ġgrounds
Ġincreased
Ġcat
ĠMcGee
Dear
ulic
olo
England
iblings
ĠPhD
ĠYellowstone
acea
Ġcatast
ĠVolvo
Ġthy
Ġorchestra
uj
resents
Ġrewriting
ĠFlav
third
basic
ĠSoc
ĠAnime
ĠRaymond
cules
ĠIndy
Ġavid
Ġslated
Ġunleashed
izarre
aples
ĠPeople
Ġtournament
ĠRep
ĠFranken
ĠBeats
ĠTitanium
uliffe
Ġturnaround
Ġfeast
ĠBuilder
FTWARE
-|
Ġviable
Ġmagn
ĠContact
Ġshortstop
Ġcitations
ĠAgents
ĠCob
null
Ġcloudy
Ġprosecutor
Ġenabled
ĠEnded
itive
ĠKak
ĠCald
["
ĠFitzgerald
Ġpictured
Weapon
Ġfrantically
Ġpokemon
Ġ1934
ãĤ·
Ġ95
upiter
ĠRena
Ġsuffix
Ġmeeting
ĠCongo
Ġcongrat
retch
ĠNich
ement
Charl
ĠMock
Fra
Ġminds
Ġprerequisite
art
cond
Ġcivilian
Ġharbor
ĠPercent
SY
:-
Ġcorridor
Crew
riminal
ĠIndians
steel
pson
Ġpayout
ĠDUP
Ġcredentials
Ġplates
Ġflourished
Ġunprecedented
Ġstatements
Ġemotional
forth
Ġvines
twitter
Level
ĠYahoo
Ġthrottle
Ġviolating
Ġprobability
Ġopium
ĠMAR
ĠHassan
ĠUh
ervative
Ġantennas
Ut
riber
1963
Ġcharacter
ĠVan
Ġsuing
ĠVo
Ġp
ĠCI
acts
Ġtermed
ivals
ĠRL
Ġuncanny
Ġjourneys
Neigh
Graph
achusetts
âķ
Param
Ġtonight
ĠEverybody
ĠSadly
owler
annah
Ġpromise
Ġautom
Ġscope
Ġphotographer
ĠDisease
Ġcollector
ĠSpiegel
Ġqualified
ERE
ĠHAS
hero
sticks
Ġtorment
ĠHubble
nb
ramids
IT
argon
Ġinitiate
Ġslam
OWS
jury
Sat
ql
ĠDep
lc
merce
Die
Wisconsin
ĠStarfleet
Ġrobotics
raction
ĠSl
Ġ410
ooters
ĠShed
Justice
ĠGOODMAN
Ġsad
letes
location
019
context
ĠSergey
ĠAdventures
Ġwatts
bug
Ġ1970
boxes
ĠMexican
culus
urtles
Ġtreating
facing
ĠChili
ĠBecame
Loop
ĠArchdemon
Ġfactor
Ġblat
Ġstressed
Ġunchanged
318
ĠWind
ĠScalia
Ġrepr
ĠSchedule
ĠKart
ĠNB
MS
Ġmanpower
ĠTar
ampton
Ġann
Super
ĠVes
Ġfundraising
ĠFoot
rel
Ġzero
Ġsci
URRENT
@#
Ġ550
Ġterritories
ĠCah
Ġgrenades
iHUD
ĠFS
ĠSIM
Ġhusbands
rosso
Ġbriefings
Ġanth
ĠApplied
extra
Ġuniversities
ĠMace
ĠDale
Ġgenomic
upe
rites
ĠNever
ĠVinyl
×©
ĠOrgan
Ġferment
Gil
310
ĠHaitian
ĠChristian
Ġwired
ĠSite
ĠCoy
cum
ĠAssoci
rosc
Ġshocked
Ġnotify
Ġ435
Wait
Ġabove
ĠTED
4000
Ġtampering
OND
Ġphyl
Ġparagraphs
Ġcured
inas
ĠBrigham
------------------------
ĠGrenade
pped
ĠShi
icc
Ġcontractual
Penn
Ġrecite
oubtedly
comment
Ġbronze
ĠEn
ĠDemocrats
Ġrival
ĠREAD
ĠAbsolutely
ĠArctic
zin
Ġallege
ol
ĠDR
ĠSanchez
ĠOptions
Ġmiracles
Ġpassively
cutting
ĠStaff
Ġshares
ooter
ĠDiscuss
Ġnuts
Ġnice
Ġmodeling
Ġfreely
Ġequilibrium
Ġbay
ĠRao
745
Ġcompiler
Oracle
ĠInterpret
Ġhypert
Ġlarvae
ĠTunis
effect
007
Ġsilicon
Ġreplica
xf
yg
aniel
Ġselected
Ġindependence
."[
ĠDevOnline
Ġpul
Ġsemin
Ġsuccumbed
ĠCPUs
Ġsimilar
Ġoutcome
veland
Ġspecialist
services
ĠJosÃ©
Ġkidn
Ġregimen
hibited
iscons
ceivable
anche
trust
Ġtaxable
Ġiodine
Ġforward
term
Ġlighter
ĠIP
akov
136
Ġdense
olic
OTE
335
Ġparan
ĠChain
Ġascertain
Ġlike
ĠBELOW
aca
opathic
ĠBrav
wich
Ġincorporating
Ġinmates
ĠFranks
Ġmarvelous
oreAnd
Ġcommissioned
Ġwatered
Ġunion
Ġarrogant
Ġboats
ĠBus
Ġdefamation
oola
Ġmarkup
éĹĺ
Sin
Ġconcerned
gin
Ġlimestone
Ġbelievable
Ġaccountant
rah
Ġkick
ĠLastly
Ġbattles
Unique
ĠSuperintendent
atcher
Stars
Ġgenitals
hemy
Ġantibiotic
ĠFACE
Ġstation
including
MO
song
ĠOpinion
urous
ĠBrewers
Ġtried
uchin
Ġbear
Ġrecipient
Ġrebuilt
Ġeleven
ĠVanity
ĠDos
680
ĠDrain
Freedom
581
Ġbrand
Ġflung
Ġcommittee
FER
Ġbackwards
Ġplanet
Ġplantation
awei
arth
inical
Ġdecency
Ġvirtual
Ġblends
Bon
Gray
Ġlung
enary
Ġevery
Ġanomaly
urse
ĠTrials
ĠLS
Ġpeaceful
Marvel
Ġmedia
ĠDescription
ĠNovel
ĠApple
ĠPa
Lib
Ġlayoffs
Ġ1933
weight
ery
ophe
Ġevaluation
pack
Ġenthusiastically
Ġ323
Ġvanquished
roo
Ġvolunte
Ġbehest
Ġattractions
ĠPersonal
Ġ274
Hopefully
Ġreflecting
Ġmarching
ileen
tracking
Ã¨
Ġbel
Ġarg
ibr
âĵĺ
ĠMelt
Ġgrassroots
Certainly
ĠHAR
ĠBrennan
phrase
ID
Ġreview
ĠCM
Ġardu
Ġep
ĠWoody
Ġvicinity
Ġdolphins
Ġpropensity
ĠBrilliant
ĠDumb
ensation
Ġconversion
century
Ġunstoppable
iao
Ġbead
gae
Ġslavery
ĠSlowly
ĠSanct
clude
acle
Ġloaf
ãģ®éŃĶ
Ġslurs
Ġmoder
ogenesis
Ġpolitics
ĠOPS
-(
Ġdie
idents
azer
Ġdiscontin
Ġknitting
rick
Ġundergone
Ġfares
Ġlaunch
Ġaunt
lf
":"
Ã©n
Ġfindings
Ġdecreasing
ĠPROG
Ġmattered
Place
imity
ĠGohan
Ġcontinuation
Enhanced
ĠGor
ihad
ĠPub
Ġtrib
Ġpot
Ġwardrobe
nah
ĠRobin
Ġanimosity
PRO
530
imately
001
Ġeight
ĠIncome
Ġsoda
arine
ĠRemove
348
ĠSEAL
Ġrepositories
both
ike
Range
Ġcarriage
odan
Ġunits
mount
Ġprocessed
Ġseparately
Ġpermissions
Ġthousands
aires
ĠChau
ĠHoney
ZA
ĠSUPPORT
alde
mberg
ĠExploration
ĠMorty
Ak
Ġnause
USB
Ġtrousers
Ġable
Ġlod
Ġarcs
ãĤ¸
âĸĵ
Ġsensitive
ĠIX
ĠPolic
isy
rophic
ĠBlue
Throughout
seek
tesy
Ġbargaining
ĠLevin
ĠStephen
During
Ġcompute
Ġhiring
Ġvitri
ĠApril
Ġchimpan
Ġwants
ĠTemporary
usage
Ġroutinely
ĠAccounts
/"
auer
Ġ195
ĠPetr
Ġtends
great
Davis
ĠCarbuncle
Sh
arge
583
Ġlending
Ġyog
Ġmicrowave
Ġessential
Ġfinely
Ġperfect
Ġ139
adic
Ġsixty
Ġcortisol
Ġmanageable
133
ĠGermany
ANCE
ĠSelected
Exception
recorded
Ġrecognizes
ourke
Ġsuspicious
Ġadvertisements
Ġforesee
Ġlocation
arthy
square
icals
Ġgrids
ĠJensen
asks
Ġeuphem
Ġcloud
ĠBonus
Ġ(~
ĠGamb
icators
%"
Ġ(<
Ġlaw
Ļ
oided
Ġrevol
Ġ++
ItemImage
Ġpayments
Ġoxygen
ĠSmithsonian
ĠVictim
ci
uggish
ĠPresbyter
Ġavocado
Ġbusinessmen
Ġswung
ĠPalace
Ġexercising
ĠStam
ĠAdded
ĠFlex
ĠUkrain
ĠShark
Ġdebian
fire
ĠDC
Ġleaving
Ġzo
Ġnominations
ONT
inkle
Ġbarren
ĠDianne
Ġmillenn
ĠMonitor
Ġtug
ĠReference
approximately
Were
Ġprovider
ĠMarkets
Ġinfluential
Ġaircraft
ĠPlus
Ġblew
reating
oling
à¤
iddy
ĠCowboys
ĠSept
ĠKate
erie
ĠHait
ĠRepeat
Ġassass
Ġ(_
ĠGuer
Ġwrists
ĠHawks
Ġ332
Ġelectroly
Ġdiagnose
Ġnarr
64
eson
My
ae
Ġlaser
Ġstrained
ĠCath
Ġselling
lux
Ġvulgar
hai
Ġlucid
Ġmathemat
ener
Ġnarc
umat
inent
erer
Ġplugins
Ġsn
Ġ>
Ġwas
Ġbesides
Ġ127
September
enger
":{"
ĠNS
Furthermore
Ġcredible
Ġprepared
Ġelegance
ĠBradley
ogeneous
Ġattendees
wreck
URL
Ġvendor
Ġwell
lance
ĠAld
%)
Forest
Ġcollaborators
trl
ieri
ucket
cul
Ġcapacity
Ġawareness
Ġdiscretion
photo
November
arton
ĠTro
Ġappreci
housing
eners
Ġf
ĠStartup
Ġdragons
00007
Header
gement
Ġbumper
Ġmolecular
ges
ĠVine
mem
ĠInstruction
TN
ĠISBN
Ġorphans
','
Ġperhaps
ĠSak
ĠTitus
prises
Stra
Ġbehave
ĠSafari
Ġsignificantly
ĠQuantum
incerity
éĽ
</s>
Ġmorals
Ale
addle
ĠHarlem
Ġparanormal
Ġ140
Ġdoubted
Ġprehistoric
Ġsoothing
Ġinexperienced
oward
urb
Ġexcellence
asty
Ġsophisticated
ĠRib
ĠTrooper
Ġamazingly
perse
ĠBorough
ĠCome
HOU
Tue
Ġdirector
ĠForward
ĠMOT
ĠJan
Ġcomplexities
Ġcompleting
Title
license
itcher
Ġeffects
ĠWhere
Ú
ensible
ĠBreaking
brainer
Ġcited
ĠBak
ĠProud
ENCE
Ġpromising
ĠComm
ĠBro
ĠYemeni
ĠCommunism
ĠKoh
/.
ĠEmergency
ĠChampion
Equ
ĠTrophy
ĠViv
ĠPlanned
ĠRent
Ġdeployment
ĠAdjust
Ġshortfall
Stephen
Ġcer
*)
å°
Ġspoilers
log
plin
Wa
éĩ
Ġsimulator
ĠPACs
ft
ĠDOWN
Share
ara
ATIONS
ĠCameroon
ieg
Ġautomotive
ĠKat
Ġcovers
ĠRic
ĠWebb
Ġshotgun
Ã¯
ĠRoth
Give
ĠHighlands
onne
ĠÂ
cker
ĠChou
ĠMord
ĠADD
atical
Ġsmooth
ĠNorthern
Ġleak
Ġsync
oyd
Ġbanks
Ġepidemic
ppard
Ġpowdered
Ġregul
Tesla
Screen
Ġgestation
ĠBlockchain
ĠLight
actic
Ġbass
ĠHope
ĠAdvance
ĠLeave
ĠWhenever
ourses
ĠContrary
Ġ262
Ġlaund
Large
sylv
Jul
ragon
){
ĠXI
IRC
asser
uden
xxxxxxxx
thora
ĠWikimedia
thirds
Ġheirs
Ġchance
ĠNorth
Ġfacilities
mys
Äģ
ĠMississippi
Ġdipping
ĠSounds
Joshua
Ġethics
Gameplay
=]
fre
ĠOLED
Ġradi
Posts
ĠYoga
series
ĠEdmonton
Ġinserted
Ġsandwic
Chapter
ĠTCU
Ġhindsight
Ġhelicop
Ġprotested
ILS
Ġcomedian
pelled
Normally
afa
ĠDone
ĠFix
iscovered
Foreign
ĠPop
annis
Ġcomplexion
Ġthick
Ġliberty
anca
ĠMutant
intent
ĠPrimordial
uds
ãĢĳ
Ġorthodox
corruption
Script
ĠLaurel
ĠLIVE
ĠPony
acan
Ġera
Ġquestioning
ays
Film
ifying
iant
ĠGathering
Ġirritating
Ġthrilling
Ġpolluted
ĠCherry
Ġmissions
Ġvoter
ĠIg
Ha
ĠSoup
ĠâĢº
Ġdexterity
ĠHobbit
ĠObserver
cession
Ġwatching
Ġoptimistic
Ġalmost
Ġthousand
ĠApart
ĠTF
Ġgravitational
atre
Regarding
Ġsunshine
ĠEconomist
gender
Ġretrospect
Ġreturns
Ġinexpl
Master
pport
Ġsenior
ãĤ½
ĠWatching
fast
07
sections
ĠEv
Ġdip
ĠTrip
Ġwidget
GER
Ġderegulation
comb
Ġauthorized
Ġcorridors
Ġmel
Ġhonorable
ARM
Ġsupport
Ġexpansion
ĠReader
ources
Ġearly
avorable
ologne
jet
Ġheartbeat
ĠIronically
Ġliberals
ĠCooking
ĠSawyer
Ġappropriated
Ġcustomers
aced
Recently
Ġassorted
ĠTDs
erity
ĠCumm
ĠDesk
AFTA
Ġcensor
Ġdrawings
Ġdepos
disciplinary
âĨĳ
Ġseasonal
09
ĠMarian
Ġclimbs
Ġbleak
ĠiPhones
Ġexcise
orns
ĠHand
Ġsave
Ġrally
Ġreminiscent
Ġcultivate
Kay
ĠNero
Ġelimination
ĠEps
alion
ĠSummoner
Box
ĠFI
Ġpsychologists
arrass
Ġrunway
anc
EP
Ġworkshops
Ġboun
Beast
ĠScotia
tem
Ġvows
Ġassert
Ġ385
utic
Ġcriminally
ĠKing
ĠPractices
ĠFeedback
Ġrevise
Ġappearance
Ġprick
Ġinsult
WM
Ġvertical
Ġinputs
ĠPretty
Ġdeteriorating
Ġthank
Ġthirty
Ġmull
ĠMother
Ġconservation
ĠNit
Ġperme
Ġmicrobes
ĠExc
Techn
Ġnozzle
illac
moil
00
ĠHel
Fat
ĠPruitt
CBS
zip
ĠSaiyan
grown
Ġdeer
ĠArticle
engine
Ġdraining
Jackson
IDES
Ġtypes
iple
Ġdebate
ĠLicensed
Ġcanonical
Ġautomatically
Ġguard
Ġconversation
Ġsnap
NYSE
Ġcapsules
Ġpony
Ġdescript
Ġspons
Ġcreditor
ĠMushroom
53
ĠFifty
Ġprove
Ġshootings
ĠEditorial
urious
urrencies
oke
Ġsurpass
Ġ737
Ġleaned
ĠMole
ĠMour
Ġembodiment
Ġbarring
ification
Ġrespondent
odon
Ġcampus
Ġcartoons
config
ume
ĠPuppet
identified
Ġvehicle
ĠVol
Ġemploying
ĠEmma
Ġvelvet
Ġscraping
Ġ221
ĠAchievements
Ġfunky
eb
Ġlunar
ĠBungie
âĸł
ĠVanderbilt
ĠColossus
Ġspecimen
Ġgauge
760
rawn
respond
Exper
Ġattain
ĠLLP
nik
ĠHis
fecture
Mech
sr
Ġmaintains
arranted
Skill
Ġcorpor
ĠSpain
ĠDelay
endif
eous
ĠSho
Ġ253
Ġstrict
Ġdetected
Ġresource
ĠSeattle
ĠRa
3000
itious
Much
Ġheightened
Ġrefuge
ĠAllow
Ġtattoo
ĠBegin
Ġspotting
Anyway
Ġreneg
Ġbenefit
ĠISIS
Ġprosperity
Ġample
ĠES
Ġ337
Ġinspirational
ĠCt
Ġpublicity
times
Ġmarkets
Ġsuperstar
REDACTED
aping
Ġcosmetic
ĠSans
Ser
Ġoriented
Ġtitled
tun
Ġcategorized
technical
ĠGoal
Ġfade
sei
Ġbursts
ĠCass
Ġshameless
ulz
LER
ĠTOD
Ġtrophy
ĠPalmer
Ġtouting
Birth
Draw
iqueness
airo
ĠApproximately
Ġorigin
Ġbulbs
Ġeligibility
Ġ<
Ġlyric
ĠTakes
Fund
718
Ġillustrating
Ġcasualty
cookie
ĠTransform
////////////////
athy
ĠBeyond
recogn
Ġmalf
actly
ĠBihar
eers
ĠCous
Ġunified
ĠIstanbul
Ġrotation
ĠCox
Ġacet
Ġcontrad
ĠStatement
905
mson
Ġauthorize
Ġcubic
ĠRem
ttle
336
received
entle
ĠExile
folder
ĠDesktop
Ġupbringing
flower
Ġmilitants
ķ
Ġshredded
workers
Ġspecialists
ĠScheme
Ġbinge
Ġtheirs
Ġbacking
Ġadventures
Ġacquire
ĠJudging
ĠExamination
imi
Ġdiversity
Ġsweats
Ġfits
ĠShiite
ĠJem
Mah
Ġrolled
ĠStrategies
Ġbillboard
itone
Ġmango
results
Ġstalls
Tex
Ġprosecut
Ġtrajectory
Ġfaced
ĠJinping
Ġmultic
gemony
while
ĠGMT
oland
Ġcomplaints
ĠCutter
bj
Pin
Ġtournaments
ĠKath
ĠDisneyland
Ãł
catching
Ġsacr
Ġfloppy
ĠClim
utral
Ġverify
ĠPyr
ß
ĠNav
ĠCoast
ĠJanet
Ġcables
ĠTypically
Ġenthusiasm
ĠServ
atha
Ġexecutions
Ġrelat
Ġpeacefully
Drive
ĠNegro
ĠPrinciples
Ġaveraged
Ġaccording
ĠShap
ĠBray
Ġbelie
Ġcompleted
ĠDrops
Ġmerger
ayan
Ġmixing
ĠArgent
auga
ĠClarks
Spanish
Ġtangible
Ġcauses
Ġamen
ĠParty
Ġpoly
erey
Ġbureaucracy
omas
ĠBian
Ġrelate
isite
bara
ĠRoma
ilant
Ġneed
Ġarousal
ĠRuss
Ġpreviews
Ġtoget
ĠLeban
Ġarrows
Ġowners
Ġlooms
insert
Ġsubur
Ġke
ĠYeah
ĠPlague
ĠTelephone
Ġinside
Ġinviting
Ġargues
AKING
ILY
absolute
Ġpatch
Ġwhichever
ĠGOT
Ġrests
Ġ251
Ġâĺ
-+
Ġhook
Ġlistened
Ġgoodbye
Ġceilings
ines
ĠLand
ĠLabrador
70710
Ġbalanced
glas
ĠGoose
ĠSpr
ĠThink
ĠGib
isle
Ġhunt
Ġunreal
Ġassemb
ĠNatalie
ĠFog
ĠReverse
ĠSamurai
ravel
ĠForest
Ġstomp
ĠAz
ĠEmployee
uing
erva
Shut
Ġinterceptions
ĠCtrl
Ġconcentrating
Ġscree
Ġsettles
âĢĶâĢĶ
Ġimagining
Ġthor
======
());
Ġconcess
Ġunderside
lock
ĠSchwarzenegger
Ġdisagree
ĠRosenstein
ĠOur
Redditor
Ġfoundational
ĠSupp
02
Since
ĠBooker
ĠAU
Ġlandsc
ĠThurs
Low
Ġcalorie
ĠEclipse
Egypt
Ġcounterfeit
Ġcomparatively
Ġunsur
ĠBur
Ġrenegoti
733
ĠMUST
incinnati
Ġwindow
ĠPoll
onomic
Depending
Ġdismant
filter
ccess
oused
etheus
Ġtwitter
Ġuploading
atum
Ġvomiting
ĠPaul
ĠSOM
1980
lamm
Laun
00200000
Ġstrategist
Mike
Ġwandering
ĠVeget
Ġfrying
ĠWH
herical
Ġxen
Ġstripe
ĠEmanuel
ĠPigs
ĠPeninsula
ovation
Ġincom
uters
Ġcameras
ĠEmerson
'-
ĠPrim
abetes
ĠRuby
ihilation
Ġ309
Average
Ġnails
Ġnoun
ĠGeneral
652
ĠCreated
Äĩ
FX
Ġthin
Ġdescribes
Ġpremiums
antz
Ġrepair
ĠNat
ĠSharma
funding
ĠCake
Ġ331
Ġview
ĠAirport
quer
ĠUSC
Ġstruggles
Ġrequ
Ġclause
allowed
Ġhysteria
uly
ĠBland
Ġvintage
Ġ110
Ġapologized
icted
Ġendeavor
Ġresidue
Ġalpha
ĠOS
ĠLocated
Ġfearsome
Ġhideous
uine
Ġsyntax
ive
ribly
terness
ĠNeed
Ġprincipled
icip
Ġmenace
agna
eren
Ġcaste
Ġstormed
Ġpree
Ġpartitions
Hel
ĠThrust
shape
Ġdiscontinued
Ġcricket
Ġprofessionals
Version
reportprint
Ġcollapsed
Ġsarc
ĠBirmingham
ĠInfinite
Ġhit
Ġtowel
ONY
Ëľ
ĠWRITE
Ġ1
Impro
ĠEntertainment
Ġe
ĠSuz
ĠAmbro
Ġbudget
Ġtransformation
sch
moral
doc
YouTube
Ġcaric
Ġhydrogen
Ġambitious
Ġlandscape
ĠCommander
sky
Ġexperien
585
esthesia
keleton
Ġfloats
acterial
ours
ĠIk
Ġtabs
LP
ĠBowl
ocusing
ĠGuides
linked
Ġpaper
ity
Ġaspects
Ġcircus
ĠNHS
Ġembrace
Ġillegally
ĠManaging
allah
day
#
Ġagon
ĠGiul
HQ
ĠSaturn
Ġremembrance
ĠAllison
Ġcub
ithub
olate
Ġasynchronous
We
Ġclue
Ġslave
ĠObi
ĠReps
etrical
]
matic
few
Ġprest
ĠMcLaren
ribes
Dom
Ġshed
Ġelect
bis
ctr
mercial
76
ventory
Ġfootprints
ĠMin
Ġfrustrations
Ġimpacted
Hello
Resp
brain
ĠClaire
Ď
ĠTitanic
Ġapplications
ĠJulie
Ġsac
Ġparted
Ġatop
Ġsites
%;
ial
Ġtake
Ġleader
Ġovert
Ġdeficit
ĠPalestinians
rounded
PB
Ġwra
Ġeccentric
ĠKron
Ġidentifiable
ĠClancy
ERSON
Ġcraz
Ġblindly
Ġcrates
ĠOcean
Ġsubter
ĠTHANK
Ġ().
Ġchalleng
Ġsegment
Reports
omi
Ġretaining
Ġsteal
Ġarbitration
ĠPH
icking
ĠOklahoma
Ġdramatic
Ġadopt
Ġâ
ĠSY
packed
ĠRomanian
ĠFiesta
igan
Ra
Ġnurs
History
Ġplatoon
inately
ĠEnable
ĠPatterns
chapter
Ġhorrend
Ġpractition
Ġallegiance
ĠCenters
l
ilton
ZI
chrome
ĠARC
ĠHist
tracks
Ġfunctional
Ġinclusive
Hundreds
Ġlikened
nsics
ĠLAW
Ġoverheard
earchers
Ġportray
Ġtumult
Ġcle
ĠFelix
Ġbattled
NRS
[/
Ġavg
"'
itus
Distance
byter
ãĤ±
ZZ
è£ħ
Ġcans
Ġbattlefield
ĠDri
android
kil
callback
Ġbiography
ĠOrleans
ĠAffordable
Ġintelligence
Ġcs
Ġdoll
Ġactu
ĠConst
ĠDame
umb
ĠCoca
Ġshort
ountain
ĠEntered
Ġincorporated
Ġcheating
Ġshattered
Ġmitigating
ĠCounsel
ĠGarry
Ġforc
Ġlow
Ġespecially
Ġcontains
ĠButt
Ġuntreated
Ġassassins
password
Ġcontradictions
irm
Ġbranded
Ġpuck
BACK
devices
Ġnan
Ġconstituents
Ġnuns
ĠWeek
ĠOFF
reports
ĠCouch
Ġmediated
ĠTerra
SP
Ġvote
äºº
ĠTurkey
Ġrequire
Ġcelebrities
ĠAcqu
ĠCompass
Computer
otally
Nazi
san
ĠContinent
Ġdiagrams
Ġnewsletters
Ġparliament
Ġsanctions
164
Ġinterven
ĠNov
Ġregional
ĠRuff
Ġshove
Ġabsurd
ĠBuck
ĠLiga
open
ĠTooth
ĠBrewery
Ġ403
message
Ġfr
Off
Ġgarrison
sa
uments
ĠAB
ĠIntelligence
Ġtweet
File
Ġdumb
ĠImmun
UP
Ġsparks
exec
Ġsubreddit
isations
Ġstandards
data
Ġrecounts
Ġje
rol
Ġdynamics
creat
heast
Ġwiser
ĠUSL
Ġguid
Ġgarlic
Ġjan
Ġsuits
asons
ĠMorton
IQ
ĠCard
ĠCOVER
ĠAutob
ĠAnge
atial
mary
Pretty
Ġrefute
ĠSpray
PUT
runs
Ġamaz
ĠResource
\.
ĠStab
Ġglared
blems
ĠThorn
Ġbowed
Ġindignation
ĠCrosby
Ġcondo
ĠHash
Ġdiscriminate
ovsky
ĠBless
Ġfuturistic
ASH
ĠMedic
Ġ800
Ġjerseys
393
isa
Ġoverhaul
Ġclosure
ĠDisp
cmp
ĠRespons
Van
Ġcaffe
Anthony
Ġobs
Ġsatisfactory
Ġtired
ĠIMP
Ban
Ġbreast
ĠOrlando
Ġoccasions
Ġsur
adder
Ġ1962
Ġturret
Ġpersonalities
res
anton
Ġdeclared
Ġarguably
ĠGab
Ġlongstanding
Ġsupplemental
Ĭ
Ĥ
Ġresidual
Ġfolks
ĠLet
Ġroof
ĠLouise
Ġtriumphant
Ġ237
endants
Ġviewers
Ġcircum
Ġdemanded
Ġpregnancy
Ġphase
Ġconfidential
tones
rieg
Ġgastro
Ġweary
ĠZed
Ġcf
Ġwashing
regon
ĠFenrir
ĠBuc
Ġrigged
ĠXie
ĠRedskins
Ġharassed
Ġ190
documented
Ġunders
ĠGrowing
ĠVersus
Ġbowls
ĠTicket
Ġ260
Ġtrade
ĠHolocaust
Ġbiotech
101
Ã©s
chall
Ġbraking
Ġmalfunction
Ġconsecut
ggies
Ġstatist
ĠNun
orate
ĠGE
968
=$
ĠOrient
ersion
rÃ©
Ġorganisms
Ġfinding
aredevil
Ġquick
est
ĠCoach
Ġretro
roph
Ġnames
Home
Ġluc
div
Ġsweating
Ġadministration
Ġclerics
rama
ĠCases
oooo
ĠStuart
flags
mble
ĠLearns
Ġ1500
].
ĠFighter
Ġattrition
Ġphenotype
ĠSoldiers
Ġ250
Back
Ġrepaired
ĠClient
Ġsep
ĠMur
Ġdevised
516
Ġtoday
Ġprofess
Ġmanipulating
Ġpatriarch
Sem
Ġnotorious
ĠOpening
Ġmeasurement
89
ĠMarcus
ĠResidents
ĠApparently
Ġsofter
Ġarr
Ġcaves
Wr
ĠObviously
ĠIDs
ĠAren
Ġstabilized
ĠHugh
ĠMush
ĠGibson
ĠJinn
Ġdegradation
Ġsorrow
Ġemerging
Ġpig
ĠGreenwood
Ġnipples
Ġequally
ĠRory
Ġteachings
Ġmisunder
Ġpac
FIL
ĠClaus
Ġyacht
Ġbrewed
Unknown
ĠFore
qv
ĠChrys
Ġlucrative
invest
grounds
icide
Ġunmarked
ilst
qus
Ġunwittingly
ynchronous
Ġbeautiful
sea
Ġalloc
ĠAjax
ĠBundy
Index
ĠVita
ĠAlf
ĠVoc
Ey
ĠWeasley
Ġprobe
Ġcoron
ĠPossibly
Ġrivalry
ĠCosts
Ġintermitt
Ġamph
Ġyells
erences
Progress
ĠQuarter
Ġsooner
Ġworn
ĠFemale
ryce
Ġclos
ĠPROGRAM
Ġresil
cour
Ġdeserted
ĠTes
uppet
Ġ150
ĠErin
training
ĠRodriguez
ĠStef
Ġtyp
Ġpoorly
ossier
Ġdressing
ĠConan
uristic
Ġfirefighter
Ġmotive
Ġsucked
anded
esters
ming
powerful
ĠFramework
Ġrespiratory
Ġarrange
ĠEVENT
ĠSeah
Ġasteroid
Ġhij
ĠAdults
Ġtong
ĠMN
Ġmammoth
cast
ĠPru
enne
scription
Ġcontractor
kish
ĠPlanetary
utions
ãĤ´
ĠSymb
)}
Ġomega
ĠRouhani
ĠRuler
REF
Ġdowntown
Ġmatches
ĠZam
oppable
Ġdusty
ĠTown
Ġalt
Detect
240
Ġaccessing
ĠNoon
Ġrides
Ġshoe
dated
cycl
escap
NECT
ĠAmong
ĠTire
Ġparach
Carl
Ġzip
Ġslit
Ġconferred
Ġbenefited
Gab
çļĦ
Ġclenched
Blu
Ġcaches
Ultimate
ĠMinotaur
Ġtarn
Ġhello
ĠImportant
Ġcompared
Ġsurprisingly
umsy
Ġreluct
volent
anna
berger
ĠInferno
Ġvotes
udden
Ġparole
okes
ĠCong
ĠHungarian
ĠGuinness
ĠOMG
ĠMeridian
onian
Ġdrilling
ĠHamas
intensity
cture
?".
Ġsynt
otrop
Ġnumbering
Ġbras
Ġpitched
Nitrome
Ġ600
Poor
Ġdesolate
Ġannexed
ied
Ġdunk
ĠZoe
Ġtranslating
Ġ436
anish
otal
ĠNepal
mbudsman
Ġgripping
Ġcrops
ĠFrem
Ġdoping
Ġrend
Que
ĠJudge
Ġdeserves
urry
Ġquer
Ġvanishing
ĠFriedman
WN
Fix
ahu
law
video
ubs
ĠAbbey
advertisement
Ġlife
ondo
Ġcompete
ĠTRUMP
ĠSymphony
Ġsap
Ġbog
vette
Ġhighlights
inx
Ġassistance
more
Ġsummers
Ġsust
Ġprize
Pokemon
Ġelders
ĠJeep
Ġruler
ĠPerl
criminal
onder
ham
Ġcooler
Ġcongest
such
ĠLafayette
ĠTransgender
ĠHelpful
ĠProtest
Ġdesignation
Personal
Ġswamp
Ġplea
Ġconglomerate
agne
ĠDropbox
ĠLAN
ometime
iolet
Brian
ĠCEO
Ġmitigation
She
76561
Ġdishes
Ġwitnessed
get
Ġko
ĠCarnival
Ġtrained
ROR
ĠPrince
Recommend
ĠCoke
Div
ĠQUEST
ĠSpecifically
Ġsincerely
ĠRatio
Ġloosen
nam
Ġvalidity
Ġï¿½ï¿½ï¿½ï¿½
Ġaliens
Ġrifles
etts
Ġana
160
Ġnumber
astic
426
inet
+(
Ġper
ĠMahm
ĠStan
ĠKathy
Ġhost
Ġrains
ĠNRL
ĠBM
ĠParagu
Ġblast
ksh
ĠOdyssey
ahead
Ġretail
ength
Á
aston
Ġtemporal
Ġpurposes
ĠRand
ĠJaw
Ġreader
Ġblown
Ġdystop
ĠLinear
pause
Ġpersists
ĠDriver
ĠChange
Ġplayground
ĠCAL
Ġunleash
Update
Ó
Ġastronomy
ĠDetention
WT
Ġsmuggled
fac
ĠNational
¶
Ġbundles
ĠEc
playing
Ġslowly
Bec
Ġreportedly
ĠICE
ĠAsian
ĠMata
Ġinventive
urdy
Ġprolifer
Ġfearless
Ġpouring
Ġvaping
itatively
izard
Ġpersistent
ĠPhiladelphia
oway
kiss
ĠMU
oder
ĠRip
Ġintroductory
Iss
Ġintimidate
PART
Luck
BILITIES
UID
ousy
Ġmodified
353
spell
Ġexponentially
ĠPetersen
Ġobj
ĠSquirrel
ĠCardiff
Small
Ġhooked
Israel
mie
Ġfasc
Ġfreed
stru
Ġdeadly
reement
ĠNamed
Ġgripped
ĠDES
stellar
Ġcomr
ĠSou
igers
Ġupstream
ĠKasich
ĠGloss
Ġlig
Ġremedies
Ġpayment
ĠFranch
Ġbillionaires
Ġrematch
ĠRanked
Ġbuddies
ĠNV
Ġspace
worthiness
biz
ĠCold
Philipp
ĠSack
IRED
ĠDAY
Ġrather
520
ĠAnalog
Which
Ġvariation
live
ĠPTSD
Ġprotect
ĠStock
ĠKer
ĠProvincial
olithic
Xbox
Ġencour
Reason
leep
Integer
Ġreform
pez
APD
437
Ġlabeling
used
ubb
Ġprecautions
Ġparty
Ġapologise
Ġrookies
division
Ġtotally
ĠPhone
Ġcannon
],
Ġapprehended
ĠStellar
Ġscissors
ĠDied
Ġchart
Ġprojectile
Ġtribe
860
hhh
Ġunilaterally
ĠLent
ĠWhites
ropy
Ġale
ĠSund
ĠComparison
Ġjump
ĠPorter
Ġcostly
Ġchunks
â
ĠSick
recent
Ġafterward
Ġringing
ĠAmber
Ġinexplicable
Ġopportun
uable
ĠHowever
ĠQuestion
ĠMoses
ingen
ĠHezbollah
test
Ġgrate
ĠInfluence
ante
Ġtriggering
Ġfloated
director
Ġshall
ĠAlley
ĠName
Ġcollected
etime
ĠâĻ
Ġundefined
Ġsavvy
STON
Ġbuilder
gy
ĠWallace
Ġowing
Ġrebellion
elight
ding
Ġsimpler
Ġundecided
655
Ġwinner
Ġflagship
enton
eme
ĠPatron
oops
Ġtoxin
Ġtask
Ġsweeping
Hun
Shop
Ġadviser
Ġastronomer
Ġgh
ĠRasm
ĠEnlightenment
David
ĠRomeo
SPONSORED
Ġglitter
ĠGiven
ĠMex
ĠWaste
Ġ..........
ĠHol
Ġepist
Ġfractures
âĢ¦)
ĠIce
ĠMesa
Ġfrightening
Ġclown
Ġarson
ĠRefer
sweet
ĠCandy
ĠDiagn
moderate
Ġinternship
Ġnewspapers
ĠRoses
ONES
Ġaffiliation
Vi
Ġreper
Ġdiscont
ually
ĠWHITE
Tweet
Ġsemantic
Ġstruggled
Ġbull
ĠGat
Ġcohesion
uted
Ġ502
run
ĠRiv
Ġsynagogue
otech
Ġnarrowing
Ùİ
Corn
Ġvastly
Ġcoordinating
Ġital
Ġgriev
ĠSouthern
omer
Ġpaints
Ġogre
OW
ĠRebecca
ĠDragon
arettes
Ġdisadvant
ĠRandomRedditorWithNo
389
ĠExxon
Ġadvanced
Ġinfring
Ġintestine
ĠMarine
Ġ770
bah
ĠInqu
ĠRadeon
Above
VID
BRE
protected
repl
ĠElements
I
ĠKling
Ġfacility
Ġapartments
ĠNash
states
ito
ĠAmos
Ġanal
ĠCarol
ĠMitt
amara
ĠJournals
Ġedit
single
Ġopposition
Ġoutbreaks
Ġnearly
ĠHoliday
Ġpiping
Ġwrongful
Ġorders
ults
Ġveterans
i
MON
immigrant
primary
pol
Additionally
Ġprovoking
157
Ġarchitectural
ĠCandidate
orst
sword
Ġdefeating
direction
Ġgifted
ĠAgg
ĠCadillac
Ay
779
Increased
inav
ĠAlibaba
ĠConfederate
ĠNOR
ĠDynamics
Northern
Ġchief
cr
Ġindoor
re
Ġbecoming
clusive
three
ĠSirius
parency
ĠEsther
Ġbourgeoisie
ulator
Ġmasse
thur
ĠPrimary
Ġdismantling
ZX
ĠKnot
ĠZimbabwe
Ġ43
uitive
ĠNevada
Ġisol
Ġspeakers
Ġgadget
Ġpores
Ġ1990
Ġveterinarian
ense
Ġfundraiser
ĠKaren
ace
ĠLady
Down
Ġgamers
TI
ĠKund
Ġmysteries
ĠPil
31
engers
ĠEvaluation
654
ED
ao
Ġrodent
rouse
Born
ĠSERV
ĠPET
ENG
nor
ĠDrone
olulu
Ġlever
Enabled
igator
Ġseizures
Ġsentimental
Ġmisplaced
Ġmysql
}\
ĠAdinida
uce
friend
reek
Ġmods
ĠCloak
REAM
ĠItalians
aga
Ġbitterness
ĠStarts
hammad
ĠUNITED
vertising
Ġmist
Database
Ġdstg
Ġsurpr
!]
ĠJeremiah
ĠFiat
ĠWalt
ĠPsychology
ĠSPL
Ġtechnological
Don
Ġradar
Reading
Ġunauthorized
ĠRegulations
venants
588
ĠSpir
wn
ĠPlant
Ġdeadlines
Ġfielder
Ġposting
eryl
Iter
254
NV
ĠSales
Downloadha
ĠBliss
Ġfun
letter
":["
Ġgradually
sub
Ġpriorities
ĠAdds
Ġ257
istence
Ġletting
Ġbaptism
Hz
ĠViking
Ġmuscles
ĠBunny
avier
ĠLydia
icy
']
abbage
ĠVac
ATES
Ġesteemed
Ġ1906
raising
ĠDonetsk
ITAL
egu
Ġsmugg
Ġ343
Ġcommitment
Ġpossibly
Ġstaging
Ġpatriotism
Ġoval
Ġadjustments
Ġtin
Ġboiler
Ġthrows
RET
ilantro
Ġbaseline
Ġyawn
$,
""
ĠRats
ĠLate
Flor
ĠFeb
¢
irted
Ġnin
Ġpills
odynamics
Ñĭ
adapt
Ġspecialization
Ġitem
-)
ortex
imposed
TE
Ġreimb
ĠAfrican
Ġwarranted
However
Ġdigits
Ġemph
ĠMHz
Ġconflict
Ġexistence
Ġcenters
eno
ĠHowell
Ġappear
ĠTorres
Ġpuzzles
Ġadditionally
Ġspitting
Ġsatisfies
×ª
Ġtwe
kin
Catal
Thunder
Ġsummoned
Ġcompensated
ĠII
ĠSAS
Ġhurdle
ĠCV
Ġcabinet
ĠEk
Sw
Ġprowess
mus
Ġli
plot
Ġiso
Session
Ġaddon
Ġovers
ĠMcCann
Ġpert
issa
Ġadopting
clean
Elect
.'
ĠPetersburg
Ġannex
ĠInt
Ġrubbing
ĠElement
ripp
ĠMister
ĠSelection
Ġevict
ĠRey
pc
ĠJenner
global
Ġinward
Ġdehyd
Ġconvoluted
Return
ĠSupplemental
Ġcryptography
ĠAssociate
ĠNew
Ġstoring
Ġsky
ences
Ġ1992
Ġbrands
ĠOptimus
Ġacron
ĠJesuit
Ġocean
Ġgin
ĠHearth
ĠHull
ĠJared
Ġemphasized
ĠRochester
ĠSach
aste
Ġtrap
ĠNegative
iration
ĠInitiative
otional
Ġstupidity
989
helps
Ġmethodological
ĠNaval
Ġquirky
ĠRadiation
ĠElven
Ġconcludes
ĠRabbit
Ġoffshore
ĠPhotos
Ġsubdivision
Ġ1932
ĠSally
ĠSeries
rypted
ĠBerk
Ġhydraulic
Ġpersona
Ġrunoff
Ġquitting
NF
ĠPond
Ġtaken
ĠReview
Ġdrag
Ġjew
Ġflags
Ġobese
ĠWM
ĠAZ
idian
Ġsolder
Ġtraced
ĠPepsi
ĠASD
"],"
ModLoader
ĠMachines
Ġquiz
ĠHeight
arer
mos
Ġdrank
Ġbutt
ĠNath
Ġdioxide
Ġdeclare
ĠCentral
Ġdelivers
ĠTunisia
ohan
oS
Ġprelim
Ġoffices
Suggest
Textures
Ġhistory
ĠDrama
Ġundertake
Ġrice
ĠOrion
Ġfrustrating
Ġtreasures
Ġrab
RC
ĠRED
ĠKeep
Ġexpect
ĠWATCH
ĠMcCarthy
ĠTag
Ġsim
Ġarising
strate
ĠSouls
antis
Ġpredic
Course
Ġconquest
chanted
ĠWild
International
ĠBie
Ġthwart
ĠCampbell
Ġpatches
Ġoperated
ĠMiddles
enei
Ġproactive
ĠSac
Ġhipp
ĠShows
Ġpledges
Ġpoaching
ĠRIS
599
?),
925
Ġpaw
Ġneighboring
iddled
Ġnote
ĠOwners
Ġshimmer
ĠURL
Ġgatherings
Ġpulse
Ġdesign
Ġdoct
ĠOregon
ĠKT
Ġexpects
trace
Ġresur
Ġunin
ĠAccount
Ġtoast
Helper
Ġig
ifice
itten
Ġwant
ception
Ġtidal
Lair
Ġpolitical
Ġcriticised
large
autical
Jon
ĠAnnounce
Ġnerds
Ġimperialist
ĠWCS
ĠQiao
Ġtraded
ah
Ġrecall
ĠAdvice
ATT
Ġnaval
Ġ1400
ĠPlex
Ġfinal
Ġroll
Ġlethal
ĠJuliet
insured
Role
156
Ġchurch
motion
ĠSet
ocom
Registration
getting
Her
ĠFerrari
Ġspiked
ĠInfect
Ġnewsletter
arily
transfer
ĠLatino
icket
Ġunsub
shapeshifter
Ē
ĠBasic
grow
casts
ĠLegislature
ĠHUGE
Ġsleeping
ĠProtoss
Ġregistration
ĠSteel
um
Ġprobable
against
chie
cca
carbon
ĠGenius
ĠLoaded
ĠHelena
ĠUsed
Writ
Ġpresenter
cience
Ġindifferent
Ġterrorism
ĠMetropolitan
Ġdiscrimination
Ġrocket
ĠLeo
obi
chairs
letal
Ġoven
Ġgalaxy
Ġseiz
ACE
Ġcandidates
Ġheroin
ĠEconomics
ĠCros
Ġivory
Ġ1800
ĠEdge
Ġdeb
Ġstupid
ĠDNC
Ġvictims
Ġdictate
ĠTornado
Ġquests
Ġwarnings
Neill
ĠPremium
ĠREAL
tile
Ġprocedure
Ġkingdoms
Ġperformer
ĠVet
Ġ"%
Ġadequate
Ġnovelty
IELD
ĠSimple
ĠBAR
project
Quick
ĠKavanaugh
ĠCove
Ġalleviate
ĠJFK
ĠLiter
Transform
ĠFeatured
ĠSoy
Ġbuying
ĠKingdom
ĠStanford
ĠPhillies
ĠRein
meaning
Office
Ġ499
igree
ilo
zbek
Ġsnowball
Ġsoar
Ġunderstandably
ĠDispatch
î
ĠIss
Ġburgeoning
åĳ
Ref
Ġcocktails
Ġcynical
ighter
fin
ĠSamantha
ĠVide
Ġpathology
ĠAgriculture
ĠPlaces
uits
ĠDiary
Ġdepri
Ġcare
Ġsuspending
Ġdile
Ġentering
Ġreferences
Ġinaug
thanks
ĠKilled
CU
lp
Ġaltru
ĠCostco
Tim
ĠAirbnb
Ġfully
Ġdull
Ġfacade
uchi
Ġanthrop
Ġ62
anco
Ġascent
ĠMuller
Gi
ĠTABLE
Ġdissidents
Pi
scientific
Ġ??
onnaissance
cape
Ġcurrently
ĠAram
Ġmultiply
ĠEmperor
within
040
Ġindicted
ĠAnk
Ġoverr
ĠVij
ĠConsulting
colour
ĠSchwartz
Ġmilitant
ĠReflect
Ġattaching
no
Sil
ĠPhilippine
Ġcircuitry
ĠAnarch
ĠCodec
Ġcomparing
ĠRELEASE
Ġnut
Ġlaid
ĠFranc
Ġtypical
AIN
ĠPierce
Ġbulb
Ġstrongly
Â½
Ġsuff
Rec
Ġreacting
idium
ĠBuchanan
Ġinfield
ĠMines
Ġcontemplating
ĠRun
Ġpeanuts
aund
Ġdialect
rossover
anyahu
ĠHigher
Ġprofitability
Ġstudent
Ġlaundering
gor
ĠBCE
ĠLynch
ĠIndigenous
ĠMinor
Dean
spread
Ġawaiting
repre
AP
Ġfavorite
Ġparaly
Ġduct
Ġvalues
Ġmilestone
Ġparsing
ĠDHS
Ġsafegu
Ġ820
Ġhomophobic
ĠTaiwan
Ġze
zac
Starting
ĠDriving
ĠEgyptians
Ġgarden
ĠRichardson
Ġfreight
Ġrefrain
Ġsomething
Ġdeleting
Ġday
MQ
ardi
Ġpizz
ĠMultiplayer
ĠExtrem
Ġclaimed
)+
lett
cer
Ġvault
Ġhandcuffed
ĠHail
ĠÂ«
esty
Ġbilling
ĠTort
Ġunexplained
Ġneglect
Ġheavenly
avez
Ġhospital
ĳå£«
ĠVerify
Ġapplicants
Unity
oos
FK
pend
Ġneuron
Wil
ĠREALLY
Ġhopping
ĠProsecut
Ġsidewalk
ĠAgo
ĠCuba
ĠCareer
np
Ġvacant
ĠProphet
ĠNiÃ±o
ered
Ġsparked
Ġ])
ĠEVENTS
Ġspoke
DE
Ġos
ĠAvailable
Bro
Ġdeliberations
fan
ĠGraphics
ĠWalk
ĠGrey
AMS
ĠEagles
ĠFres
ĠWWII
Ġglutamate
Haunted
ĠType
ĠFraud
Ġfascism
502
Ġfearing
TIME
POST
Ġcostumes
Ġadminister
Ġdesigned
Russia
iological
Ġseeming
Ġbots
Aff
Ġartillery
length
ĠSweep
Spain
ĠLovecraft
ĠMikhail
åĮ
ĠBeautiful
Ġconcerning
Ġvehement
ĠIssa
rimination
pri
Ġdenote
rored
ĠLabyrinth
irement
Ġinterface
Ġsmiling
Ġteammates
Ġspecifying
ĠVeil
Ġeconom
Ġcriticizing
Welcome
Ġrealms
Ġfascinating
ĠWarriors
ĠCele
->
UE
storm
CHQ
Ġsponsors
ĠPow
Ġferal
Ġisolate
Ġappro
Percent
Ġstatus
Ġsymbol
ĠChampionships
Ġmurdered
Ġger
Ġimplication
Ġhosts
Ġgranting
Ġcorpus
Ġethanol
Ġfung
oes
iber
ĠDr
Ġstag
ideo
CHAT
cks
ĠGerard
Ġprotagonist
Throw
ney
Ġamassed
ala
gs
ĠVoy
Ġpref
Ġpredecessor
regnancy
nie
ossom
Ġwages
Ġwhales
ework
Ġswirl
stroke
alan
present
ĠTreatment
igr
Ġrepealing
Ġdifferentiated
lasses
Ġimages
Ġdeduction
Ġlip
undreds
Ġbiome
ĠBoh
Ġresources
glomer
Ġgrotesque
ĠTHIS
Ġescaping
Ġpertinent
Ġcooled
Ġantidote
ats
Ġbegin
prot
ĠSalary
Ġsmoothly
ĠJoan
Ġformations
THER
ãĥı
ĠFer
Ġ1936
>[
ĠSwed
plets
1100
Ġretire
Ġbis
ĠMystic
ĠLad
ĠShadow
ĠImperial
ĠMechdragon
Ġports
Ġgo
Ġtales
Ġcert
mud
ĠAppears
icken
Ġgrievance
é»Ĵ
ĠEar
clock
quin
esson
Ġreef
olor
Ġlawn
ĠText
ĠAires
ustainable
epad
ĠDT
Ġhep
Cele
Ġoverdoses
Ġfar
TO
Ġtele
Ġoct
andal
ĠWedding
Ġfurry
rompt
..
Aaron
Ġspear
ĠCorporation
ivism
NPR
Ġconsoles
ĠYorker
Romney
ĠCommentary
ĠChronicle
ĠNBA
Ġtransported
amas
Ġcentimeters
Ġregener
Ġconvent
Ġreplies
Ġrecession
Ġdeemed
Ġdemocracy
Ġpreserving
ĠScouting
ĠEucl
Collection
ĠACS
ĠCorbyn
Ġunwillingness
Ġtelevision
ĠGandhi
Ġnos
husband
raine
esame
Technology
Ġ56
Ġsenators
Ġingenious
Ġiter
ĠStrikes
ĠSports
uthor
title
ĠScott
ĠExpo
Ġadv
Tri
Ġlifestyle
Ġnull
ĠMig
ophers
Ġflyer
paren
ĠBuster
ĠPartners
Ġmyster
Ġworker
Ġfe
size
asta
Ġunmist
Ġnode
Ġreduced
Ġsubtle
ocate
alf
Ol
ĠUnderstand
Ġironically
Ġheadline
ĠCompleted
rawdownloadcloneembedreportprint
Ġfills
Ġapples
ĠMamm
Ġcalibration
Ġ121
Ġabolition
Ġtransformations
nect
proven
%),
ĠAnswers
ĠGemini
Ġprobation
NetMessage
Ġprized
ĠAside
Ġarm
340
MAX
ĠTyrann
Ġsafeguard
ĠThatcher
Ġworkplace
ĠEdwin
ĠMethodist
ĠSkinner
Ġamplifier
ĠCrash
verson
Ġtaco
Ġbirthplace
ists
ols
Ġcooked
Ġincreases
Ġrespir
Ġvolatile
House
Ġimpecc
ĠCohn
ĠHarrison
Ġunm
257
Ġveterin
Ġtensions
ĠSaga
Ġcamoufl
Ġweekend
ĠDow
ĠStores
ĠWidow
Applications
availability
raught
ĠUniverse
Ġvulnerabilities
Ġurine
ETA
ĠNarc
ainted
Ġ324
ĠKnowledge
ĠMali
Ġunpaid
leck
hene
NAS
ĠJobs
ĠGram
Ġpawn
Ġduplicate
Int
Ġnearby
ĠHawaii
Ġtestimony
Ġgimm
Ġbroke
ĠGaga
Ġ357
ĠForgotten
Ġzipper
Ġlakes
Ġaquarium
çİĭ
Ġtraveler
Ġbeck
Ġclothed
ĠIps
Ġnegro
ĠFitness
Ġdeals
ĠUK
Le
Ġtexting
Ġsafeguards
159
ĠFi
crop
DL
Ġheals
Ġdistraught
Cross
priority
ortality
Ġhostages
Ġlaud
ĠOscar
Ġcoupled
470
259
zik
Ġfeaturing
Middle
Ġpulses
Ġcolleg
iy
Ġcarrot
intendent
ĠASUS
Ġphantom
ATIVE
VERT
Ġdispro
apons
ĠTek
Pers
ĠCIA
ĠFrontier
Ġadherents
ĠDepartment
ĠGeneva
72
Ġcustoms
ĠVid
ĠBALL
ĠScottish
ĠRebell
Ġinfertility
Ġalongside
uggest
ãĥĺãĥ©
bert
Ġlimiting
Ġcove
Ġdiscredit
ĠApply
ĠCruise
ĠBlocks
Ġticket
ocation
ividual
anto
Courtesy
Ġyielding
ĠSuicide
ĠKD
ĠPV
ECH
okemon
Ġpaths
888
Ġkeyboards
802
ĠSlip
Ġanxiety
Ġscar
Ġmaple
ĠClick
ĠDuring
Ġ128
ĠCertainly
Ġheinous
Ġdb
Ġdelet
Ġremote
ĠBarkley
containing
ĠMM
Ġsupp
ĠNW
ĠAttention
Ġdecreases
Ñĥ
Ġcollect
ĠCentury
Ġoil
rette
EPA
puting
angers
affiliated
ainment
R
arger
Ġacknowledge
arin
Ġcapture
Ġgangs
ĠUng
Ġpavement
ĠTough
rov
Ġilluminated
ĠCondition
Ġ305
pn
ĠLip
ĠYe
Ġmonths
asting
ĠPirates
ĠCES
Ġinsects
nda
Ġsouthern
ĠTimothy
ĠLeon
Ġscreams
ĠCherokee
ĠPoe
Ġcondos
Ġcoercion
ĠPlays
Sel
Ġ97
Ġmystical
Salt
INE
ĠAer
current
ĠIreland
ĠFab
backed
ĠTommy
cow
Ġallocations
Cat
Ġbrightness
ĠAlone
ĠSinai
Ġinher
ĠKDE
Ġincarceration
itech
Ġdefends
ĠSlov
ijah
Destroy
aturdays
Ġrgb
azed
chery
ĠCharl
AN
ailing
488
ftime
keley
Ġpneum
ĠYose
Ġpodium
album
Camera
Ġglobe
ĠACLU
Sensor
gal
ĠNev
ĠVector
Ġspices
rior
1991
ĠKindle
oha
Ġchildbirth
Ġcomplexity
Ġgrammar
Ġbuck
Ë
Bey
ren
rin
;
Ġkeeper
wr
ĠItaly
ĠDistribution
Ġthru
Ġwarped
Ġtextual
Ġrs
ĠHillary
ĠForum
Ġpremiere
Blocks
Uncommon
2012
ĠSinger
Ġkneeling
Ġatroc
aturated
});
Ġdamn
ĠNuclear
ĠDevice
Ġbuzz
Ġearlier
Ġcommanded
Ġwarm
ĠBarrel
Ġflashback
Ġrun
Ġgang
Ġcapsule
ĠNoticed
Ġparties
ĠLamar
Ġoriginated
ĠFactory
Ġinstruct
Ġdenomination
Another
Ġinsulin
Ġbackbone
Ġansw
Ġbring
arest
Ġprioritize
Ġserv
Ġ1200
ĠKenya
ĠCapture
uckles
Ġchallenged
630
Ġtrack
Ġhikes
ount
Ġtissue
ĠDragons
Ġrocking
Ġfrag
ĠVe
Ġfronts
ĠLatvia
Ġclassmate
ĠFashion
pel
umps
Ġfilib
acly
Ġassessments
ĠKendall
Ġredesign
ĠChrist
ĠDun
NH
ĠCutting
ĠGhana
Ġgoose
Ġbackups
Bloomberg
ĠGladiator
gerald
Ġrevised
Ġencouragement
ĠMonteneg
Ġcoronary
Ġopposing
ĠLondon
abee
Ġconstraint
ĠHigh
VER
ager
ĠScar
Ġcomposer
Ġmaneuver
ĠDust
Allen
ĠCompare
ĠOuter
GHz
ER
ĠCompan
Ġauditory
Ġadventurers
emb
Security
ĠWilderness
src
Ï
Phones
Steam
tw
Ġtrunk
Ġstartups
Ġ%
Ġtestimonies
ĠChristy
ĠVancouver
Ġsoared
ĠTab
Ġimmobil
Ġavenues
errilla
lus
ĠRoute
Ġaccountability
Ġdefines
rations
Ġvaginal
Ġundeniably
ĠLOL
Ġadopted
ĠTiff
ĠTHR
ĠAlgeria
Ġpun
Ġslogan
ĠTammy
ĠUk
ails
Ġdemonstrates
ĠColo
buff
requisites
mann
ĠJA
ĠNewtown
ĠElf
Ġstalled
ĠDAC
ĠTLS
Ġbombardment
Ġextradition
Ġtimber
Initial
Ġemperor
Ġhive
ĠVirtue
Ġtweeted
Ġ280
Ø¹
Ġlasts
ĠCyn
ĳ
Ġsort
aah
Ġvying
Ġvow
ĠOrganic
Ġsettlements
Ġsends
req
ĠToxic
ĠBoulevard
rend
Ġsexually
Ġemoji
ĠWerner
ĠShields
ĠRebel
Ġevils
aminer
1959
Ġprestigious
Ġretailer
Ġbright
ians
ĠChiefs
iked
Ġunderscore
ĠDude
ĠGeoffrey
inant
Ġworkforce
oldown
ĠGrimes
Ġ\(\
Faith
Ġanalysed
Ġdisappears
Ġcounselling
wh
ove
ĠMarshal
Ġunsustainable
Ġtalents
ammers
Ġnaturally
gewater
Going
ĠHels
orians
gly
Made
Ġspoken
Ġconflicts
hire
Ġchildcare
ĠRupert
Ġcontradicted
Ġ1930
pole
ĠHarvard
ĠPi
Ġoldest
425
ĠOp
Ġdensely
Ġinfant
Close
mid
ĠAnyone
Ġdurable
Ġont
Ġnasal
phot
Ġunbelievably
ĠLim
Incre
2002
ĠHannah
Ġhamstring
Ġsarcast
Ġconvin
ĠRegular
ĠTravels
Ġrestoration
Ġbrilliant
Ġvisitor
eline
ĠArchitect
Ġstorytelling
aed
Ġmanifesto
Ġaccuracy
ĠScala
Ġembracing
Eh
å¥³
Ġaluminum
Ġreacts
Ġexclusively
Ġprime
Ġreviewing
Ġhardly
Ġmarches
ortion
Ġattacks
Ġpromotes
ĠDonn
Ġroot
Ġ13
Ġtherapist
ĠHerb
Ġapologizing
Ġsatire
Ġmolten
ometry
ĠSymbol
ĠOblivion
ĠPound
Ġneighbouring
ĠHe
ĠDig
Ġmummy
553
Ġslapped
Button
orporated
ãĥķãĤ©
339
Ġestablishments
fit
ĠGOLD
Ġdiamond
ĠVent
GF
Ġnutshell
Ġgoogle
ĠWikileaks
Ġindexes
Ġpropose
eating
ĠROM
Tomorrow
ĠNep
Ġcounterterrorism
Ġ329
OOOOOOOO
ĠSlim
ari
Ġathlet
uve
Ġlaughed
Ġassoci
ERY
Ġhallucinations
Ġjudgement
953
600
Ġpredicting
Ġsensit
Ġprovoke
ª
ĠSched
Ġ387
ĠGems
ĠStephens
Ġdistinguishing
Ġpractices
ĠLas
Î¹
Ġparasite
Ġplausible
ĠIntake
Ġimpl
ĠCTR
Ġtomat
----------------------------------------------------------------
ĠLabel
Ġfactories
Ġhalfway
ĠAssass
ĠAlec
oi
ĠSurviv
Ġhots
Ġhits
Ġinsanity
Em
Ġsolicitation
ĠTasmania
ĠProsecutors
Ġquasi
Ġstrawberry
ĠMalaysia
ĠStarted
ĠParis
Ġland
Sub
ĠUSSR
Ġcompassion
2010
Ġpush
ĠDPR
itle
ĠXD
etchup
ĠMalk
ĠShirt
imp
text
Context
Working
ild
Ġrays
ĠHau
Ġsir
abetic
dark
ĠNico
Ġmatte
ĠIntegrity
lishing
ĠSecondary
ĠERROR
wheel
Ġprediction
iday
Ġgolden
amoto
Ġawarded
ĠTermin
Ġsilk
Ġplummeted
ls
similar
ĠEVE
ĠBuenos
ĠHale
ride
haul
Ġload
ĠLaws
ĠGoodman
Ġcustomize
Ġare
idis
Ġrefusing
nosis
Ġpolarized
ĠRolling
ĠMiss
Ġ1922
Science
leon
ĠSOC
HP
ĠWhole
ĠProblems
Ġwhispering
Ġlate
Ġshitty
ĠBitcoins
ĠPokÃ©
utsu
aches
æĢ
Ġpraising
comfort
Uh
ividually
Ġhorrors
Ġinaccessible
acky
ilia
ĠTenth
Nar
ĠWITHOUT
drm
coal
DON
Ġpunishable
Ġsalient
ocide
ĠSovereign
drivers
Ġbadly
RN
Ġefficacy
ĠCIS
ophical
ĠAshe
Ġoptimism
aple
wered
ĠSlow
Ġinferior
assisted
Ġcath
Ïģ
ffiti
Ġchanged
Ġbrowser
645
Ġblessing
Ġshave
ĠDOD
Ġwidth
Ġmeasures
Ġspeeches
ĠSAN
ĠMODULE
Ġhaun
Ġwillingness
Jr
Ġwaived
Ġspilling
Ġeco
Bring
ĠSATA
itia
Ġsnail
Ġdismissal
SL
Ġexpressive
ĠCLASS
cong
authors
ĠNetherlands
nee
Ġcaregivers
ĠKidd
Contact
ĠCardinal
Ġcontrollers
ĠDash
ynasty
imating
ĠBreak
ĠAlpha
Ġantibiotics
Ġperiphery
sense
same
itude
ĠAngle
Ġsell
Ġjur
Ġdisinfect
ĠGrape
Rust
ĠBowman
ospons
see
Ġexceeded
Frag
Ġvariants
ĠCru
Ġintolerable
ĠVital
Ġinsulting
Ġdinners
aphael
Ġforehead
tests
Conservative
ĠMain
Ġlinebackers
223
ucer
Ġcaucus
hours
ĠLanguage
Ġstuck
ĠAdmiral
Ġultr
Ġexce
IS
ĠRevelations
CRE
Ġtru
ĠToad
Eric
Ġbattle
Ġencountering
Ġfoc
ĠTucson
ĠNutr
secondary
heddar
Ġordained
ĠLun
0002
mine
Ġbragging
Jeff
Grand
Ġdiplomatic
ĠMedia
1200
Ġnetwork
arers
coll
Ġbattalion
Ġpomp
ĠLover
Ġsignings
Ġprocesses
Ġsolution
DEV
Ġneo
NK
ĠPCR
ĠLud
plus
ĠNaomi
ĠLuck
Ġbal
ĠJacques
ĠUL
Ġattackers
Ġanesthesia
laim
Ġpsi
Ġappointment
ĠâĢ¢
ĠAustin
Ġtrailed
isch
Ġcannabinoid
Ġglory
riott
ĠZoro
Ġbye
Ġoh
Ġawaits
ĠFellowship
Ġsum
falls
generation
Ġicy
Ġtasty
Ġnavigating
Ġey
Â
ĠConference
ĠSpani
')
Ġdisapproval
ĠTemperature
Ġdestination
Ġopenings
Ġlift
iful
ĠFrankenstein
ĠJulio
Ġinsured
Sullivan
Ġtwin
iguous
ĠSocrates
ĠCGI
Ġmeantime
ĠHemp
ĠMarketing
Ġsalute
chief
ĠContinuing
ĠAPP
develop
ĠStyle
Ġcrippled
Ġforgiving
ĠKend
ift
ĠColumbus
bees
XT
ĠFriends
ĠNice
planned
----------------
ĠHor
Ġmil
Gr
Ġboth
ĠRi
Ġamend
ampions
edience
ĠSocialist
Ġ());
ostic
Ġreasoning
Ġsigns
Ġgrad
Ġsubstitutes
HD
Ġrecre
ĠMathemat
ĠTrevor
girlfriend
pleted
Ġbra
Ġembargo
limited
322
ĠPB
Ġcompressor
++++
åĤ
Ġcaptive
++;
ĠRFC
ĠAud
URE
ĠRainbow
Ġbaff
Ġlob
Ġguide
brook
Ġsports
north
Ġtowels
Ġadverse
uracy
bourg
Ġbirths
ault
ĠDept
ĠUFC
Ġfuel
stage
ĠDev
ĠAdidas
Ġportals
ĠMexico
Ġpersecution
Ġget
yd
Ġnucle
Ġeased
ĠCompatibility
sung
ĠIncredible
Ġpoorer
ange
Ġrumored
ento
ĠTEST
ĠMarcos
Ġmoment
ĠValhalla
Ġmortgage
Ġblockade
Ġunravel
686
ĠOrc
hed
Ġattracting
ĠIR
acers
Ġpaperwork
Ġdestinations
Ġabruptly
Ġrecruitment
Ġintertwined
ord
Ġ));
ĠLibertarian
ications
round
giene
ĠCompact
ĠStranger
Ġsheds
Ġprincipally
ĠHan
ocking
ĠGames
ause
Good
Ġunst
Ġranger
Ġfreel
ĠNPCs
ĨĴ
BT
Ġcondemnation
ĠDems
ĠJets
Ġwitty
Ġminers
Ġextremist
hen
Ġexpans
umbs
iminary
Ġtracked
Main
eger
Ġfranc
Ġtook
Ġcompens
Brazil
ĠNissan
wine
Ġgladly
GAN
ĠOff
Ġunab
Ġstimuli
ĠMarqu
ĠJUL
Ġwheat
ĠClosed
Ġbaseman
ĠCord
ĠJones
itution
172
ĠXbox
Ö¼
Ġindependent
vy
ĠTas
ĠH
ĠICC
Ġnews
Ġeventually
hot
Ġdiscourage
Ġhousehold
Ġ***
Ġrevisions
Ġsensory
Ġauto
ĠInfinity
ainers
iquette
Ġaccommodate
ĠPRES
Tax
Ġadmissions
Ġ+#
Ġcousin
ĠSecret
Ġlosses
umi
ĠTitan
Ġharsh
Ġbow
zilla
ĠVel
Ġaggregate
ĠMachine
lov
TERN
ĠEqual
arse
ĠUltr
Ġsuffer
ĠSTAR
Ġbuds
Ġsynthes
Ġtuned
Ġconsiders
ÙĪ
()
rt
Time
las
Ġdisagreements
Ġbrackets
385
pal
Ġspew
Ġdoub
Ġasshole
poral
199
ĠCreator
ecast
Ġvanity
Ġplunder
Ġgiveaway
Ġwidgets
Ġtrophies
ĠGenerally
Ġautonomy
Ġbuckets
Ġut
Ġterms
Ġunde
ĠStraw
Ġempowering
Ġpigeon
entials
Ġcyl
tarians
Ġinquiry
ĠUnknown
isal
ubi
chid
ĠCandle
kef
.>>
Ġconvol
Ġounce
seless
Os
Man
ĠApollo
Ġband
AIR
Ġconspiracy
serious
ĠEV
DNA
iel
le
Ġrails
Ġpossesses
Ġadmin
Ġdives
Ġfid
civil
Ġovarian
reme
ĠThy
Ġexploited
Ġcomput
ĠPathfinder
Ġprotection
Ġnobody
ĠTS
ĠMoments
collect
Ġurinary
ĠFilm
Ġbaths
ĠFEC
sql
}}
Ġpersonal
Ġfigure
Ġcrack
Ġpartnering
agent
Ġgranite
Ġrushing
imedia
Ġ96
ounded
ĠHussein
epend
ĠAluminum
ĠIde
Ġugly
Block
Ġtrains
why
atts
ĠShrine
/âĢĭ
shirt
Ġintegration
Ġburied
Study
Ġexpressing
future
oran
Michelle
Ġsubordinate
ĠVariable
plan
pled
ĠâĶľ
ĠHealthcare
Ġfatigue
Wheel
âĸĢ
Ġincompatible
Ġdan
Ġtable
ĠAstro
ĠPegasus
Ka
ĠRise
Ġdetached
charged
ggy
Ġthanking
ĠFat
intelligence
910
Ġtechnician
ĠLeaving
Ġbiological
ĠPixar
Ġpiracy
Ġattendance
Ġallow
star
Ġassessment
Ġportrait
baum
ĠPassion
2009
Ġcongressional
Senator
rue
during
Ġmutant
itant
Scan
ĠYu
Ġreincarn
WIN
lav
Ġsquad
gre
Ġnm
thood
Occup
ĠBlazing
Ġnationalist
Ġbigotry
ULT
regulated
Ġformed
cci
Ġdecorated
Ġswept
hum
Ġelections
ame
Ġsail
Sometimes
Ġpopulous
Ġartisan
";
Spider
Control
Ġyo
Ġtrader
Ġfishermen
Ġportraying
label
Lew
ĠExtras
White
Ġmindful
Ġinstructors
ĠPsychic
É
Ġ1954
Ġenemies
ĠGillespie
itiveness
Instruct
roe
Ġop
Ġlocal
Ġbooking
ignment
","
Ġhur
ĠChanges
ailability
cling
Ġimplications
ĠCity
Ġhorrendous
287
ĠPublisher
opot
ĠInsect
BILL
ĠProduction
Ġrobust
Others
ĠTibetan
ĠBlumenthal
List
Ġregrett
ĠHover
ĠReplacement
ĠCC
ĠKenyan
ĠEight
JD
118
ĠCARD
Ġfiltering
agonal
\-
Wan
serv
Ġpolio
Carter
Ġradicals
Eng
Ġleftists
ĠBenjamin
DI
arrell
ELD
Andy
ĠUpon
ĠBok
Border
uses
Ġcomplained
ĠWriting
Ġkindness
Ġsecretly
Ġcountering
ĠDanny
ĠÃĹ
Australian
Ġshorth
Ġhardness
Ġingrained
Layout
Ġblows
Ġrepealed
ĠNotice
ieves
ĠUCLA
source
ĠNor
Ġveins
ĠAlz
aha
ĠSnake
Ġforcing
Ġreg
ĠC
Ġfixed
Ġcorrections
Ġtechniques
Ġgenerals
ying
Ġaccepting
ĠSciences
Years
July
Ġbriefly
ĠLists
ä¸Ĭ
javascript
Ġhappen
SHARE
647
Ġcoaster
filename
");
Ġfighters
Ġcorrel
ĠEcc
Callback
Ġenabling
Ġtender
Ġsadly
Ġballistic
Ġdisappear
clear
Ġsped
ĠUps
Team
".
ĠLov
ĠProvided
ĠPetro
research
Ġeject
Ġblister
ĠBackground
Ġhemisphere
ĠWarrant
ĠLenin
YOU
EA
GA
Ġcollisions
andom
éģ
Ġcheap
Ġtowards
ĠChaff
Ġ106
Ġattach
Ġdefensive
Ġfish
Ġ1942
Ġ194
Ġ65
Ġproclaim
ĠBatman
Ġnarrowed
ĠETH
ĠValkyrie
ĠAFB
GOP
clip
248
Fine
Ġ104
Ġinterception
Ġcum
Ġchatting
ĠAlic
Ġentire
ĠClause
ĠCredit
ĠVolkswagen
Fresh
ĠAssessment
ĠDa
Ġlegion
fighters
ĠSew
ĠMeasure
Step
Ġpipe
Ġparticle
Ġblamed
atching
istent
ĠForge
ĠVari
enum
ĠGlac
Ġcalmly
Ġfiasco
self
ĠResidential
Ġconvertible
Ġtox
ĠArm
ĠFem
Ġguests
yout
hes
sim
ĠZionist
uana
VIDEO
Ġcircuit
ĠProvidence
ĠOccasionally
minster
Ġradioactive
Ġtelescopes
Ġrecomm
ivated
Hero
identally
Ġconstructs
Ġprojectiles
aze
eness
ucks
ĠPact
Ġconnectivity
itars
ĠComprehensive
Lago
42
Ġbanker
Ġsadd
Ġnegotiation
aire
ĠRankings
ĠPersona
297
Ġbodily
Ġsituated
tions
Ġ242
Ġliquids
ĠStrateg
Considering
Commission
ĠVERS
Ġcompetitor
Ġcolors
Joy
database
Ġriding
Ġachieving
oples
ĠCub
Ġcomplied
Ġdissolved
itled
ĠFlash
just
ĠMoroccan
CLASS
Ġminus
ĠPastebin
Ġabducted
illary
Ġsaddle
Fuel
A
ĠArri
ĠJohnston
Ġfro
aternal
Chan
TS
ĠCare
ĠDoors
ynt
Ġseafood
ask
Ġwreck
alo
ifling
aut
ĠHub
rot
Ġsans
Ġopio
Ġsentient
Ġgrades
Ġfought
Ġprovisional
DAY
orial
ĠMai
Ġcampaigner
ä
eworks
Ġunification
Well
ĠAnother
some
ĠSR
ĠLawson
Ġmaintain
Shot
Mouse
Ġrul
Ġpancreat
646
Ġcomfortable
ĠCooper
udi
ĠCatholicism
Ġsprinkle
Ġresult
yon
Ġnotoriously
Ġ1928
later
Ġ1896
atton
Ġundue
guide
Ġartific
Ġexhib
ĠAct
Ġsuburbs
Ġbulls
355
rss
Ġsulph
Ġ346
Ġwond
Ġnewer
ĠRoof
er
ĠDan
Ġformulated
Ġtire
Ġot
Ġalgae
Ġexclaim
xus
ĠCertified
Ġswell
ĠHELP
ĠKenneth
Ġaffairs
ĠLatin
Ġscorp
ĠEastern
Ġsoutheastern
ĠConstable
attle
arenthood
Ġbombard
Ġsympath
ĠYing
byn
Ġannot
Ġoverlapping
Ġpredator
Fl
ĠFed
Ġdestruction
ĠGallagher
iac
ĠJazz
ewski
Ġphilanthrop
ĠLauncher
Ġchoked
Ġdeviation
ĠLis
natal
gary
Ġquestioned
ĠSix
Ġexamples
Ġskepticism
ism
etic
Ġgraphics
ĠFleming
Ġbo
ĠIntel
ĠUs
igned
Ġsurrogate
Ġdisable
Ġimprovements
irlwind
ĠSt
ĠCrew
ĠGmail
Ġemblem
552
ĠExp
Ġdiscover
Ġpopping
ĠYEAR
Ġperv
ond
Ġapostle
geries
missions
886
Increase
Ġsulfur
ĠShop
Email
Inside
Captain
987
Ġ\
Filename
ĠCarey
ĠCinema
Ġphil
ids
Ġcrisis
ĠRai
Ġtrench
Ġdeceptive
ĠTD
idency
ĠChev
ĠSacrifice
Ġcheered
Ġnonprofits
olution
bolt
emis
Ġbusy
Ġwee
boost
":[{"
gew
gar
ĠMissile
ĠScourge
Ġaerial
ĠMD
operated
Ġscientifically
ear
ĠPremier
268
ĠDenise
laus
ĠScor
Ġneighborhoods
Ġ365
Ġsale
Ġgown
reet
Ġenough
ĠBy
Ġdecree
fried
ĠDiesel
Ġfore
ĠIPM
Ġhired
ĠTurnbull
Ġbars
ĠKle
Ġsavior
Ġle
ued
Ġrobberies
eatured
Address
ĠHaiti
Ġfried
ĠKinnikuman
ĠSpielberg
Ġhours
ĠReynolds
ĠMn
ski
Ġgenocide
Ġsip
ĠVIDEOS
Ġfemales
Ġcosmic
ĠPok
ĠReneg
Ġcompliant
571
json
ependence
chwitz
hop
Ġimper
ĠCrus
modified
ĠVK
ĠTexture
Msg
zee
Ġrotating
Ġreel
ĠAppropriations
icon
Ġcompetitions
hole
ĠFires
static
Package
Ġextingu
atives
Ġkidnapped
rors
Cool
ister
vel
Ġcooling
Ġbanana
ĠSets
methyl
Ġpurchase
Ġparchment
ĠNavajo
udget
Ġfew
ĠTherapy
ĠBolivia
Ġ'.
Ġmerchants
Ġheadquarters
Ġfingerprints
Ġstir
Ġbitters
Blade
plete
MORE
Ġglac
Ġwhatsoever
Ġapplies
ĠVim
ĠExplan
ett
ĠGuidelines
Ġ356
otonin
`,
Ġdeclarations
ĠPlenty
ĠCaucus
ĠAppalachian
Ġcommodity
Ġplan
ĠMIC
intel
ageddon
ĠKob
Ġrapper
Ġabst
Our
Focus
Ġ\'
ĠDoctrine
ĠRockets
ĠOmega
col
ĠCham
Bre
Ġunpleasant
ĠSof
sed
448
itent
iko
ĠCARE
ĠPG
uffy
Ġw
ĠFaust
ĠRw
ĠArbit
409
17
ĠCorridor
475
Ġcolleague
ĠTOUR
Ġcenterpiece
Ġ445
Ġtattoos
Ġwarehouse
Ġpeac
978
Ġinconsist
Quotes
ĠAlonso
Ġinspire
Ġneighbour
ĠCreating
Rel
Ġemployers
Ġblames
613
duction
ĠAerospace
chat
Ġpiety
ĠOr
Ġoutlaw
iliated
915
Ġsoul
ĠEdmund
ulia
file
gem
Indian
ĠBenefit
Ġcircumvent
Ġstartling
ĠAdelaide
ĠDrill
APTER
alias
:#
Results
innie
Ġcivil
HTTP
Polit
ĠTheresa
Ġcloser
Ġboxes
enf
rimp
Ġfit
ĠMaxwell
Ġclassy
Ġâľ
ĠIndo
Ġ:-)
Ġhippocamp
ãĥŃ
Ġdecoding
Ġtaboo
Ġcozy
ordering
Ġhandles
ĠTea
Ġdeaf
Nov
Ġvengeance
Wall
Ġrated
bn
ĠUCH
ĠBYU
true
ĠL
orge
employment
ttp
program
ĠNext
Ġburger
Ġbribery
Ġcomputing
ĠHastings
Ġodor
Ġattaches
View
Ġmenstrual
)*
ĠIranians
800
RO
ĠSomewhere
Ġgerm
&&
andan
hip
Ġarrival
ĠSek
ĠNim
ĠSurv
Ġscandal
Ġcolonial
ford
Ġcontempl
ĠUtility
ĠWould
ĠBest
wives
ĠRapp
Ġdisputes
Ġmuscular
Cur
Base
ĠPyth
ĠAbdel
semb
Ġrecreation
Count
ĠSaving
aunts
ĠOrganisation
Ġ107
gl
Ġokay
ĠDew
ourage
Ġcelebr
ĠFOR
sq
Ġdistress
Ġinvolve
ĠAp
Ġcrushed
ĠTransformers
hang
repe
ĠRenew
UTC
Ġeman
Capt
rated
enberg
Ġ{{
Ġmoss
Ġbeetle
Vis
Ġdiscrepancy
ĠSk
ĠAncients
ĠHelen
VR
ĠMiracle
ĠGhostbusters
Ġregisters
legal
ĠRepresentatives
ĠCivilization
ĠPitt
cig
tv
Ġ[+]
ĠYES
ĠBroadcasting
Ġboss
berto
fm
ĠQuake
Ġsoaring
ĠLauren
Ġ11
ĠNap
etz
Ġpenned
ĠConversion
short
465
Ġfaculties
Ġloops
Ġnative
Ġadvancing
Ġacknowledges
ĠSachs
OTA
oir
WAY
Ġtyranny
ethe
ĠCommons
Ġreceptor
Ġfossils
Ġminced
Ġphilosophies
bind
Ġkickoff
Ġaugment
ĠInher
trans
ĠPerson
aterasu
Ġseparated
ĠPadres
Ġprose
ĠMcCull
BP
Ġincur
Ġspring
Ġabilities
Should
sequ
ĠCapcom
ĠCG
Ġspirit
Ġorthodoxy
Ġ./
Ġrefreshed
148
Ġtweets
Ġuniqueness
ĠLoud
oulder
Ġincompet
ĠElementary
Ġparity
Between
Ġgenerosity
low
ander
Ġrightly
Ġbloodshed
rowd
ashion
Introduction
Ġhapl
Ġshowcase
ĠSage
Vaults
Ġ<@
Ġcharisma
Ġwoman
Ġmicrobiome
Ġencounters
ĠFrank
Ġrepertoire
Ġwasteland
Width
qua
Ġreceives
AA
ĠSolar
ographic
Ġdocumented
ĠHoly
Ġgif
esta
ĠÎĶ
ĠMiliband
121
========
ĠLibre
Ġoppos
820
enfranch
ĠSaunders
isf
Ġsuspend
ĠRican
must
eva
antic
Ġrepaid
Ġcliff
Ġsampled
Ġkids
aba
scoring
ĠPUR
Indust
Ġconsumers
489
ventions
Weak
Ġquantities
ĠGru
Ġlied
Ġinvite
ĠZy
Ġexacerbate
Ġdot
Ġdwarves
Ġoffseason
Ġbias
Ġsavings
ĠPanthers
urt
ĠIncident
Ġlauncher
orea
ĠÂ®
ĠThat
Ġblues
Ġslide
ĠPl
Ġsleeves
ĠFern
ĠTavern
authored
Ġwillingly
ĠProsecutor
Different
fu
ombies
Ġoffensive
Ġkicking
Ġtaxpayers
ĠCotton
ĠAbraham
ĠOlivier
CHR
ĠEll
ĠPierre
ĠCooperation
ky
Ġlegalization
Ġfugitive
ĠFuji
ĠU
ĠSz
ĠEdison
armed
ways
Ġstance
ĠMcK
ĠDeliver
Ġludicrous
rw
Ġmembership
Ġway
ĠCase
Ġacceleration
ĠSemin
Ġcurated
Ġdevise
Ġaudition
Ġblasp
Ġcipher
Cla
sers
///
Ġcompress
Ġbegan
ĠLevy
Ġket
Ġfill
Ġhollow
ĠLT
Sys
ĠGur
ĠWonderland
ĠTokens
ĠWorse
ĠCollector
fact
loader
Ġoutnumbered
Ġnaming
Ġtatt
Pod
Ġwhisper
aird
Ġaver
Ġhel
ĠLucius
Ġdestroyer
ĠLeadership
Ñ
ĠVance
ĠWelfare
IG
borough
Ġbiking
ĠCorrect
Ġconsiderable
Ġpollutants
inyl
ĠIslamabad
ĠPublication
Ġavenue
Ġpowerful
iod
Ġunanimously
dig
anned
Ġequivalents
Ja
ĠGutierrez
Ble
4
Ġpulmonary
YC
Ġfiller
ĠâĢ¦"
Ġtoward
ĠTuring
emade
addin
MRI
hester
Ġblind
ĠGreece
ĠAgu
Ġconfisc
ĠDmit
ĠTone
Ġbreathed
Ġthumbnail
Ġmanifestation
ĠMarketable
Ġafford
Ġdragging
Ġpetition
Ġties
ĠElect
assi
Ė
ĠCyp
ĠBone
Ġ339
uate
Ġhumanoid
Ġlonger
wife
ĠGingrich
ĠHoward
Ġthirst
Ġunloaded
ĠRomney
Ġintoler
Ġpointing
ĠValley
Ġwatt
ĠEntityItem
ĠAudit
ĠScotland
oma
ĠPanther
specified
Ġviruses
ĠMacintosh
surprisingly
verty
ĠWax
Ġtra
ERROR
umo
Ġvirtue
Ġbicycl
F
ab
ĠConfederacy
)--
ategories
ĠWomen
slave
Ġsoaking
ĠCulture
Ġthemes
ernels
ĠMasquerade
izons
imate
Ġhairy
Ġgraft
Ġcontainment
Ġinitiative
ĠReuters
ĠVal
ĠFight
cell
Ġloader
interest
Ġutil
Ġtwisting
ERN
ĠPluto
ãĤĬ
Ġsent
Ę
Ġshine
ĠAshes
Ġcrowned
Ġcommence
Ġdh
Ġmigrant
ãĥ¼ãĥĨ
Ġcountered
Ġscenario
Terror
ĠDH
Ġyr
cancer
ĠMedal
Ġelevation
Ġman
Across
Ġapproximately
ĠHans
iling
Ġdisorder
Ġheads
finding
Ġtraffickers
ĠStephenson
ĠBL
Ġenumer
Ġprefers
629
criptions
docs
orthy
Ġunpop
Ġ295
748
Ġjam
pat
Ġrepresented
Hall
ĠStout
Ġfeminism
ĠUTC
Ġif
ĠNec
achment
Ġarthritis
GoldMagikarp
Ġvisitors
Ġrepud
Ġwalk
ĠGEN
alli
Ġmoratorium
Ġdeparted
users
ĠOwens
Ġreminds
Ġframing
ĠRefuge
Ġserve
Ġstre
Ġimmature
Getting
Ġcripp
ĠColl
Ġbrow
Ġincest
ĠKissinger
Ġcontinuing
ĠSong
Success
Ġmayhem
eday
ipedia
ĠLys
Recommended
Ġdisciplined
Ġdesirable
ĠResponse
Ġavert
Ġvast
ĠElection
Ġstepping
Ġjeans
ĠHomes
ĠCot
ĠPrague
Ġinjuring
ĠTribe
Leod
Est
Ġsociology
Ġstorefront
ĠFacility
send
desktop
ļéĨĴ
solid
ĠMarkus
Ġforgot
Ġtestim
âĤ¬
Soft
ĠShips
players
Ġearning
Ġdirectives
ĠKem
ĠSpawn
Ġclicked
Ġphases
ĠDJs
ĠInstant
ĠALE
Ġvisualize
cultural
ĠTai
wa
Ġapproaching
Ġsucceeded
pub
Ġadvisory
Ġmassively
Ġlaptop
ĠTaj
ĠRear
Ġfleets
ĠReached
Ġaffiliated
Ġcolor
ĠEmblem
values
Ġoccas
any
ĠOuts
ĠKeith
ĠPai
ĠNetanyahu
ĠCCP
Ġyuan
Ġundert
Kal
asio
fer
killed
ĠSTATES
van
adata
ĠNeighbor
ĠPredict
ĠMass
the
Ġdisk
Ġtrigger
Ġtoilets
begin
ĠMemory
Ġrife
398
ĠIndianapolis
capital
pread
windows
ĠBoot
Ļ½
ws
Ġrobotic
ãĥŀ
Ġpopped
ĠVehicles
Ġsporadic
Ġ((
ĠDrag
Ġplush
Ġdisguise
æ©Ł
trap
ĠEngineers
Ġdelays
Ġcustomized
Ġ(%)
Ġnecess
ĠAriel
fen
Ġsubmar
Ġfundamentals
region
Ġawa
Ġsocieties
Ġmk
Ġstud
673
ĠDISTRICT
Ġflock
've
ĠHotel
Ġvested
Ġmonstrous
Ġtaste
Ġsparkling
anan
irrel
Ġscrew
Ġ289
misc
Ġy
ĠMax
Ġvertically
Ġcelestial
Ġdag
ĠAndroid
ÅŁ
Ġchunk
ĠAnglo
points
ppa
Ġcontinued
ĠHurricane
709
Ġthri
rib
Ġserotonin
alkyrie
emy
stories
Ġimpover
Ġmutated
Ġpaid
Ġrou
Marcus
Ġgel
keyes
plain
Ġempowered
Ġrooting
Ġcloak
Various
ubuntu
Ġchars
Ġcandle
Entity
Ġpits
ĠFuture
imm
Ġbehalf
Ġburden
Ġsalon
Ġdispensaries
Ġgenders
Ġcardio
ĠMinerva
Ġfielded
Ġthinks
413
pty
Disclaimer
Ġvs
hest
called
Get
Ġchampionship
BC
Ġstabilization
abb
ĠMohammad
ĠMap
import
Ġlast
300
ĠDou
ĠTelegraph
ĠGG
Ġunforgettable
rology
ĠFlo
over
child
ĠClinton
137
got
Ġobnoxious
Ġlunch
Ġprovision
Ġtremendously
Ġability
Ġim
Ġtaught
inding
ĠHust
ĠFederation
Ġsecession
ĠAdjusted
Ġrepeat
arrison
ĠGalile
ful
ĠAsked
ĠEstimates
Ġarchaeological
Ġhes
Ġbin
ĠKimber
Ġa
Ġsponsoring
Ġprincip
every
crazy
gc
buf
ĠIRC
Ġrocked
Ġcharges
ĠBoys
Ġunaware
Ġnegotiate
Ġmerciless
Ġmadness
Enh
bats
ï¿½
ĠAly
Ġaward
Ġboiling
Ġretrieved
Ġinvading
umni
arb
ãģķ
Ġis
atever
cf
Ġdarker
nm
ĠFurious
Closure
Ġeleph
ĠArthur
Interest
ĠRight
poly
inski
ĠMeal
Ġprinces
ĠSketch
odi
Ġejected
Ġbands
pared
CHAPTER
Ġfixes
helle
Ġtwitch
igen
Ġlaughs
Ġhttps
Ġisland
Ġninth
Ġparticular
Lens
ĠChampionship
Ġrelatives
ĠGuang
ĠBehind
Dash
Ġ)
aska
ĠFabric
ãģ®æ
Ġfoam
Ġlakh
ĠMember
ĠClassics
Ġjet
Ġsubscrib
Ġenthus
Ġexactly
ang
hap
ĠUSB
email
Ġaltercation
Ġleading
ansky
Ġweed
ĠTa
otive
ĠHannity
clusion
Ġblot
SEA
Ġwizards
ffff
áµ
Ġdraped
ĠSaints
Ġcomplete
Ġdomestic
Ġtouring
Ġconcern
zig
akin
externalActionCode
ĠCran
ensions
HAM
ĠFuj
ospital
ĠAthe
Ġ1070
330
Ġgenerated
iosyncr
ĠKO
ĠPrix
Ġdistracted
ĠModels
liction
ĠShen
Ġpropaganda
Ġwavelengths
Ġ390
ĠDonkey
pair
Ġdaughters
special
Ġanthem
ĠNorwich
omp
Ġviolently
Ġdemonstr
obyl
544
Ġstressing
Ġcac
ĠGron
Ġattending
ĠNuggets
ĠRumble
ĠDivide
Hour
Ġhect
Ġnoon
Ġfarm
ĠLiam
Life
Leaks
024
ļé
Ġinadequate
ĠCalvin
Ġfeeling
Mass
ĠConserv
Ġrendition
Ġjoints
RIP
Ġmatrix
Ġaffidav
ĠEle
Ġtrademarks
Ġclosures
ĠThames
Ġantics
è¦ļéĨĴ
Ġtide
Ġdeity
Ġblur
Ã©
ĠSince
ĠSiberian
hers
Transfer
Î³
Ġreddit
708
Ġperverse
aptic
Ġinterrog
ãĥĪ
Ġgym
hour
ĠInjury
Ġboot
Ġsepar
.,
Ī
ĠCast
ĠDecker
adding
ĠDamon
ĠLouisiana
Har
ĠGaul
ĠNews
ixtape
ĠAndromeda
ĠArabia
Ġcurve
ĠReign
state
Suddenly
Ġsneaky
ĠCorrection
shit
Ġmanagement
HOW
Ġconvince
ify
Ġseeking
Qu
asant
ĠROB
ĠAless
ĠKirin
ĠOntario
igon
TOP
site
Ġamy
ĠDesigner
Most
Ġ322
oko
ĠEisen
marriage
Ġembodied
ĠTowns
Ġions
Balt
Ġpar
Ġrelocated
Ġbravery
Ġunf
Ġbasics
angles
oli
Ġrailways
ĠForced
ĠJun
ĠSandra
Ġpile
licted
Ġstitch
Ġauthoritative
ÏĦ
Ġmenacing
urs
Ġspecies
ixt
Ġcrackdown
aji
dec
Ġtyrant
renheit
Ġcontrasts
Ġstimulation
ĠForth
mbuds
Prop
ĠTinker
Ġ[-
Ġcontractors
ĠEconomic
idered
ĠHare
opol
Bytes
Ġmoderately
ĠDesire
intend
ĠHorowitz
Ġ239
Ste
Ġ1941
ĠManz
Ġviolates
ĠEmails
Ġsubstr
Ġwash
Ġignorance
ĠPour
Ġworsh
ĠThu
uations
cru
ĠSchwarz
ographed
Ġvibration
ĠDire
portation
Ġfool
Ġink
Ġcountryside
Ġ570
ĠCheap
zanne
monster
owing
Ġsquares
);
Ġediting
Ġstandings
were
ouf
Ġlandlord
Ġtravels
ĠGriff
ĠPlayoffs
Ġ99
Ġathletics
Business
rone
Ġoutsourcing
Ġplanners
Ġemulate
seeking
ocon
658
ĠInvestigators
Ġbene
ceived
Ġproduces
Ġgradient
ness
Ġtheoretically
Ġultras
severe
ĠNotting
Ġopposite
inner
ĠClinical
sized
Ġtents
rek
utation
Ġorganism
Ġhemp
Ġcrossings
arial
ĠFug
++)
,)
ãĥĨãĤ£
through
ourced
ĠOh
ĠWP
colored
cious
ĠWish
osphere
Ġmoist
Ġtherapy
inus
ynski
ĠBanana
Ġmarine
ĠSPR
422
Ġaven
ĠHealing
Ġ278
Ġdefiant
web
ĠMinion
Ġginger
oj
Ġunequivocally
ĠPhi
ĠUnderstanding
omic
Ġtrouble
ĠCompanion
ĠXiang
Ġ35
berg
Ġ300
Ġalright
Ġemot
Ġtragedies
Ġstations
interpret
ĠLegends
Ġimprobable
Ġthunder
Ġconstructed
ĠAPI
fish
Ġnovel
produ
Ġcrypt
Ġdiabetic
Ġclubs
igate
Ġcart
itional
cially
ĠCY
Parents
Drag
Ġcolle
Ġmetre
ĠTRI
oday
ĠSaul
Ġadventure
IL
ĠPutting
ickr
ĠContains
615
Ġvari
inea
Ġtresp
Ġthieves
Ġweighted
Ġparamilitary
ornings
Ġinvesting
ĠStall
iqu
Ġgoof
ĠEMP
stained
Ġdebates
--------
advertising
Ġtempting
ĠGreenwald
Ġelectric
Ġcapabilities
Ġsingles
Ġintroduced
width
Ġinnovation
makers
Ġensure
Ġcorrupt
Ġrider
Ġcake
ĠTropical
ĠNX
Ġhospitality
ĠLane
Ġlasted
piece
Ġ02
ĠBranch
ĠCongratulations
ĠAub
Ġsustainable
ĠBurma
Ġannouncement
seven
Ġsanctioned
timeout
ĠNewly
Ġinfectious
Ġconveyed
Ġcalam
ĠDisability
Ġdrunk
verse
Ġtimeout
alyst
Ġsuccess
Ø¨
cre
Ġstaggering
ĠTottenham
Ġensures
Ġamongst
isSpecialOrderable
756
ĠKabul
Ġpard
rooms
Ġpeach
ĠFRI
has
ÃŃa
fitted
aiden
ĠRecovery
sg
ultimate
Ġobesity
ĠEngland
ĠCabrera
iv
ĠGan
Ġranch
Ġgrape
Ġmountains
Ġactors
Ash
Ġdisdain
Ġnick
Ġdistortion
803
Ġscrape
ĠBurton
Ġdisplaying
Michigan
ĠPref
...]
words
MODE
Ġforeclosure
ĠFAM
ĠGray
ĠGamer
edes
podcast
Ġinvestor
event
Ġmes
Ġvolunteers
Ġchopped
201
aned
ĠPepe
Ġinvites
Ġclinically
Simon
è¦
Ġquiet
Ġcomplicated
agnar
Ġ00000000
Ġinflated
ĠDiscord
angler
Ġbacter
Ġsprink
cfg
ĠRevolutionary
Ġcars
Ġ28
ĠServices
Ġbarrels
ĠBulgaria
ĠCoulter
Ġreckoning
optional
Ġauthorities
Õ
Ġnonsense
Ġscripting
ĠLup
blogspot
Ġantagonist
ĠSpeak
Ġoats
Ġsupervisors
Miss
Ġrich
ĠWell
ĠNielsen
mult
Ġtheoret
Ġregistrations
Ġmotion
Intel
Ġlargest
Submit
Ġangered
Ġfriendship
ĠLeather
ACY
ĠOf
ĠOther
Ġinflamm
ĠMurdoch
112
Ġcommunist
itutes
IST
ĠâĢ¦
ĠPersons
ĠBou
Ġmonsters
Ġsurf
Ġadvises
Ġ{\
ĠQuinn
Ġ700
Ġthroat
ros
ĠLt
Ġdo
des
Red
boys
Ġreveals
ĠYun
Bad
ĠBarker
Ġ525
Ġoccurrences
ĠBrookings
mir
Ġentities
RY
they
RD
outing
ĠFoo
ĠPinball
Ġborough
Ġbrewer
ĠUnivers
Ġglands
df
Ġtremendous
Lou
laughter
Ġfurn
alysed
Ġobserver
Ġprojections
ĠJav
Ġ248
127
ĠGR
ĠKi
ĠDot
Ġrebuke
Ġfields
ĠSands
Ġreceptors
151
comes
Ġdanger
rees
goo
ĠLORD
ignore
ule
Ġqualifications
Ġextrem
ĠOrigins
Ġqueen
ICE
legged
Ġdating
ĠHomo
Ġracist
ĠBA
ĠDOI
outs
ĠHoover
ettes
obia
Side
Ġexplosive
ĠNeh
Ġhad
Ġbrought
Ġinterruption
Portland
ĠWork
ĠRH
snap
Ġvan
Ġhypoc
onomy
Ġjustifies
Chief
learn
Ġresort
scene
]."
ĠGret
ĠRaid
Ġlaunchers
ĠPlease
ĠQueens
Ġhomicide
Ġwiring
Min
Ġadversary
Ġhorr
Ġbut
ĠHumanity
045
Ġstationed
Ġdeval
ĠGrizz
IP
ĠFraz
ĠHann
Ġpretending
sequent
Ġtheorists
Ġpercept
endix
Ġpooled
VB
Ġcompl
ĠPatent
ĠFlor
commun
cont
ĠCH
Ġsteak
ĠDres
Serial
Ġtcp
rd
ĠAhead
ĠCoup
Ġorally
"},{"
VK
ĠAmon
ĠMonument
Ġbesieged
Ġintegrating
Ġcontradiction
Ġeconomy
ĠMade
Ġdenominations
leen
alian
eth
ĠDeadly
Ġbounce
ĠRosa
Motor
atoon
osponsors
Ġaccumulation
oz
icable
ĠMosque
ĠProhibition
ĠTimes
Thank
ossession
imeters
338
Warning
akens
Ġcollege
Ġbrawl
Ġreduces
Ġshack
ĠHaley
itably
Ġbrighter
ĠEyes
Ġworkspace
Ġfavors
Ġstate
arian
inson
Ġenlisted
Ġinsanely
Ġgiant
174
AU
ĠClassical
Ġlayered
Ġbasket
Ġresides
ĠPride
mopolitan
Ã¸
uned
Ġworrisome
ochet
raints
ĠKrugman
ĠMagnus
Ġclip
Ġextends
KNOWN
Ġunheard
Bonus
«ĺ
ani
Part
Ġpregnant
inic
Ġcapital
ĠCenter
Ġupset
ĠApps
Ġpleasure
Ġcloves
Ġexamined
628
GP
ĠBee
Ġhelium
ĠConsolid
ĠBriggs
zone
throp
Ġprophets
Alice
gom
ĠCalculator
Ġtargets
!!"
Ġunderdog
ÂłÂłÂł
Ġsnapping
reat
ĠMidlands
Ġlogs
Ġchallengers
Ġlover
ema
ĠHonestly
Ġoverview
ĠResurrection
saving
Ġ34
ĠRESP
Ġapplaud
ĠNex
Ġunrel
82
365
Ġmetabolism
ĠOlympus
usterity
Label
Big
ĠAdapt
sym
ĠEngine
Ġcooker
olester
Ġallot
esian
ĠSurgery
ĠEuph
Ġscan
Young
Ġdet
ĠPharaoh
Ġunderstood
Ġpunches
Wh
Particip
Ġfins
Ġsincerity
Ġbabys
Ġcontinuously
Ġorganizations
Ġtransport
ĠTennis
JM
thread
Ġcondemning
ĠAdding
ibrary
isSpecial
Ġportfolios
Ġlinear
Ġroadmap
uel
Guest
Ġtallied
Ġlush
ĠSoci
2018
Ġrabbi
RANT
ĠNaples
Ġrapport
Ġredundant
ĠNightmares
ĠForsaken
Ġpushed
Ġtreasure
Ġcorpse
Taking
Ġwhenever
Ġangle
stock
ĠHamburg
iatures
ĠKenobi
ĠPacific
Ġmobile
ĠAgainst
ĠAG
smanship
Ġschizophren
Ġinfancy
Topics
ĠStatue
ĠRegion
ĠMoose
407
Dialogue
Ġcheaper
ĠJunk
Ġunlaw
Ġdestroys
ieval
Ġtastes
Ġgathering
essor
ĠPKK
Ġmicroscopic
liber
Jean
@@@@@@@@
Ġgravity
Ġshakes
did
ĠTun
Ġaroma
Advertisements
Ġsus
Ġtransfer
ĠBurk
Ġpoorest
offic
tor
Ġconvenient
pher
Ġdisciples
ĠJaune
Ġstockpile
ĠClass
bands
Ġstartled
Ġinoc
Ġstren
Ġerection
Ġmirrored
REG
Ġprostitutes
Ġpreserve
ĠJay
Ġbreaks
ĠMLB
ĠInf
asel
bedroom
1977
Development
aryl
ĠUsually
ĠScreen
Ġ);
Ġhumiliation
ĠRidge
Ġcorrespond
ĠRelease
ĠProsper
world
ĠSunrise
ĠMigration
Ġmarket
Ġconsolidated
Ġpopulist
Ġhybrid
ĠCout
wind
ĠRadar
orius
ĠClock
Ġdebunked
Nich
Gb
Ġcitizen
Bat
ĠAwakening
Ġmanif
Ġconvention
Ġfrontrunner
Ġindustries
aus
Ġmimic
Ġ),
ĠJuly
Ġcolumnist
Ġmetabolic
Ġdesignate
ĠHispanics
iris
416
ĠShare
ĠJavascript
inqu
expensive
efer
ĠFirstly
Ġdividing
ĠSherman
Ġsoak
tra
Kevin
Saudi
Ġclaimant
determination
Cube
berman
ĠMorgan
xxx
Ġapt
Ġcuisine
ĠHAL
Ġusable
Ġs
ĠAlison
leground
better
Ġgore
Ġbotched
ĠMitch
Ġvolts
ĠMarvin
ĠFDA
Ġaf
Ġrecommends
Ġcatapult
down
Ġproved
ĠOv
Ġministry
Ġsitting
ĠMaul
Ġpredict
au
Ġgraphic
"!
ĠGPU
ĠNick
Ġmerc
Trivia
Star
jad
147
follow
Ġwedd
ĠNaturally
pres
ety
ercise
ĠUt
ĠBod
ĠTerms
Ġexhaustion
ĠTracker
Produ
Origin
ĠGill
izo
cosystem
Ġlets
Ġinformants
ĠKobe
ĠInstitute
Ġrallied
358
Putting
Ġfantasy
Ġappointments
ali
Ġcel
Ġlegalize
asions
go
Ġrepe
Ġoverthrow
Ġpreclude
Ġincrease
Ġdiscriminating
Mis
iamond
Ġsevere
Ġtruck
Ġ114
andon
Ġreproduced
Ġmedieval
ĠKuro
Ġdeclined
ĠImam
Ġmeaningless
Rest
Ġmoreover
Ġfigur
Ġ374
ĠLegendary
Ġcervical
.",
~~
resist
Ġcalculation
ri
Ġclosing
Ġplayoffs
Ġunderpin
lez
ĠWestbrook
Ġguardian
apper
Ġharvesting
ĠFP
ĠStew
Ġstriped
Ġexh
ĠNovember
ĠRasmussen
penter
çĦ
drops
Ġow
Ġdrinking
271
ĠPiet
ĠTreasure
zzi
Ġtofu
Ġarchaic
Ġdetector
Fort
Ġendurance
ĠDate
pu
Ġrestoring
ĠSN
ĠCourtney
ĠTownsend
ĠHot
Ġphotography
ĠArmenia
ĠSTA
ĠDane
Ġmeta
Toy
Ġtubing
olesc
ĠMagical
ĠBelief
ĠHurricanes
essee
Ġscripture
HH
Asia
ĠWitches
AIDS
Ġbona
olves
Ġincrements
Ġimagin
Thirty
Password
Ġobligations
kids
ĠRate
communication
ĠRosenthal
dragon
Ġlocked
ographical
ĠGSL
ĠBrett
ĠUCHIJ
istics
Ġseasons
ĠChes
ĠIceland
network
Ġexplored
ĠMaterial
ĠNicole
ulously
ĠGentleman
Ġglyc
Ġmisdemeanor
ulkan
ĠRecorded
Ġexported
Multiple
Ġoverseeing
icion
ĠElephant
Ġcommuters
Ġpsychology
ĠGall
Ġdispersed
ĠSign
Ġlocally
andel
ĠMetallic
ĠKlingon
Ross
ĠInstallation
Ġlament
Mother
Ġ41
ipples
rosis
ovie
FIN
ĠStacy
ĠNeedless
fur
iability
Description
ple
ĠAlert
cur
Ġdagger
Developer
Ġlov
Ġforgiveness
ĠToby
iddler
ĠArabian
ĠTenn
ading
Maker
ĠDoct
ĠASP
ĠEnergy
Ġinstallment
ĠLibya
spec
ĠLikes
ĠChallenge
bles
ĠShack
Ġinspir
Ġclimbed
TC
Ġreply
Ġforefront
Ġple
Ġattends
imental
Ġgal
Ġpity
Ġescort
ĠAlternate
ãĥ¼
Ġhighways
QU
Ġalign
ĠBears
Ġfleeing
Ġstrike
ĠKiev
Ġpigs
history
iture
ĠExpression
Hunt
ivable
Best
Ġvoucher
Ġdamning
Ġslim
Ġmater
Ġread
Ġconsequences
Ġcombat
Ġembarrass
Ġflattened
Ġmentor
Ġfitt
Subscribe
Herm
ĠRB
Ġresume
edu
ĠMyth
ĠLeafs
atz
Ġtrainers
ĠExtract
Ġunden
Ġdivisions
Ġsurrog
Adds
running
Ġcorresponds
ĠTuls
ĠDistribut
ĠContainer
Ġsuburban
ĠâĹ
mia
ĠCollabor
Ġpsychopath
Ġspeaker
TT
ĠTimber
Ġfide
NEWS
Ġfledgling
Registered
498
Ġgoaltender
ĠGreenland
mons
Ġrece
759
Ġpromot
gment
Ġamplified
Ġmelee
Ġsmaller
Prim
Ġdere
sts
dem
Ġcondemn
ĠHod
ĠOrigin
ĠIV
ĠMixed
Ġpirate
ĠComey
Ġdisappeared
Ġbloom
213
Ġyogurt
Work
alking
Ġ3
Mill
ãĤ¯
ĠSouth
Ġwrote
ĠHearts
ĠColt
Ġencompass
odox
Ġunfolded
642
Ġreasonable
retched
ĠTER
Ġbecause
Ġdesired
Ġwarns
Ġspare
ulation
Ġdefects
Ġ421
Ġoppose
but
Ġexplanations
thel
anasia
ĠArnold
Ġcontribute
Ġrecognise
Ġoverwhelmed
ĠCustomer
Ġstigma
ĠBarron
239
Ġestates
iga
ĠSpeech
ĠHeb
Ġlegitimate
Ġcivilized
Create
Ġbolt
CH
ĠSPEC
').
versible
FC
r
ĠCT
463
37
ĠWWF
rugged
Und
Sche
INT
Ġscrim
Term
encrypted
Ġturrets
ĠFANTASY
summary
ĠPrinc
Ġspec
Ġcookie
ĠWhat
Ġcostume
Christmas
Studies
ĠSaturday
ĠSkyrim
Regular
mini
Ġindu
ĠIncarnation
Ġsupposedly
umn
hak
Ġplateau
nyder
ĠMaurit
Ġdesire
ĠBeing
Ġplans
ĠLobby
ĠQuentin
Ġintensive
Ġrestraint
ignty
Ġpillow
Summary
Ġ(=
Ġknee
Ġpes
Ġimprisonment
ursion
classic
Ġdiscriminatory
Null
othing
Ġswallow
ĠDum
ĠCurt
Ġunemployed
Ġemptied
Ġmph
Ñģ
ĠDeVos
Ġprovocative
ĠPeaks
LOC
Ġresponsive
æĪ¦
ĠPel
Ġcompet
Ġrenovation
Ġobliged
ikes
ĠBuild
Ġfaithful
ĠRefugee
Ġhabit
Ġsympathetic
rad
Common
Ġcommercials
bear
Position
ĠSamsung
Ġproceed
ĠAtl
embed
Ġdisappoint
Ġsynd
ĠImagine
Ġinsurgency
olutions
Ġstimul
Ġsemen
angled
wagon
Ġcaption
Ġhelping
Ġacre
Ġimpaired
ĠNish
cus
ĠAllies
ĠAwoken
ĠDefinitely
ĠIn
Roll
Ġsummoning
Cruz
Ġdoesn
ĠRandom
ĠTruly
requisite
Ġfictitious
Ġnor
Ġopportunity
ĠDestroyer
ĠVald
ĠColombia
Ġvehicles
ĠVAL
Ġfantastic
Ġinflammatory
ĠShould
ĠBolton
ĠFIA
educ
ĠSpread
Ġtel
ĠDelicious
ĠBelichick
212
FO
ĠHallow
äºĶ
pless
Ġbacterial
Non
Ġfiled
ularity
ĠShane
ĠTouch
Ġmistakes
ĠFans
ĠInteg
ĠHandling
Kelly
Ġresearching
Ġincluded
Ġscatter
ĠMech
Ġhundred
Ġallerg
upid
ECTION
ĠNay
ĠAhmed
Ġrock
Ġprotest
Ġforwarding
Ġscriptures
Ġreviewed
Ġextermination
ĠTempest
*:
Z
minus
Ġlatency
Gear
Ġpsychiatrist
ĠGhost
ĠTate
ĠMotor
ĠCanadian
Ġhomeland
ÙĨ
ĠAnswer
democratic
Ġwounded
Ġexcerpt
Hong
emale
Det
ĠSAF
253
ĠAnalysis
essim
Ġfavourite
Items
(){
LA
Ġclass
ĠThey
ĠSector
ĠMach
Ġenzyme
Ġregular
ĠClara
Ġreinforced
Ġsubstrate
Ġlore
ordable
ĠOper
ĠAlready
Ġ129
1995
ymph
Ġcomprise
Ġexplosives
iverpool
ĠAmp
higher
Ġ(!
Ġ-------
Ġmethods
Ġinvests
ITS
Ġnar
ĠKerr
famous
Cond
ox
Ġpant
Ġdeterioration
ĠSimulation
ĠGregory
Ġrampant
Ġdecom
igor
952
rock
retion
ĠAshley
Ġsleek
death
Ġsued
ĠParadise
ÙĬ
Ġsuscept
Ġlawful
dit
ĠValiant
exp
ĠSurface
Ġhitch
ĠRocky
Ġhomeless
istine
reference
%]
ĠStarcraft
Ġcollaboration
ĠDen
Ġnec
arser
MN
Ġaccol
At
cho
ĠFact
ĠCor
Ġtracker
erd
Ġrelentlessly
Ġmisrepresent
Ġ293
Ġ80
Ġsacrificed
ĠParking
ĠRevenge
Ġpupp
ĠLum
ĠRV
ean
export
Sah
Ġrip
arios
Third
ĠCo
Ġwords
Ġext
ide
ĠHomer
ĠUsername
ĠHeads
ĠSantiago
innon
Ġsecondly
Ġeast
ĠKerry
mate
Ġlaps
Ġsolvent
Ġsentenced
ĠBeck
æł
ilar
Ġwhere
ĠExpress
Ġwh
Ġfraught
ippy
ĠManit
Ġric
Constructed
ĠShowdown
psc
Ġrebate
Ġbetrayal
ĠBernie
eight
assion
ĠAnthony
ĠISPs
Ġattent
Ġadditions
Ġcalcul
ĠElectronics
Ġdepot
without
ĠCasino
Ġconclusions
Ġtonnes
Ġpromoter
ĠIns
burse
Ġboils
Ġwanna
Ġpyramid
Ġchapter
two
Ġrelaxation
ĠShock
ĠFren
Ïĥ
Ġnude
Ġorgans
Ġobstruct
Ġplayers
farm
ĠMercy
Production
ĠAngeles
Ġresided
ccoli
Ġurgently
Ġconstituencies
Listen
Ġinstrument
ho
ulates
Ġundo
EEK
Studio
mu
PHOTOS
orsche
Ġ['
Ġvoc
elong
668
Ġpleasant
asures
ĠNGOs
Ġexciting
Ġgest
onduct
ivalent
kered
borg
Ġexposition
Ġsitcom
Ġtraffic
Ġsword
Ġtransitional
ĠBlades
EEE
oya
select
htm
ĠHex
Ġreject
Ġuniversal
ock
HL
Ġstash
breakers
Feed
Ġ98
Ġï¿½ï¿½ï¿½ï¿½ï¿½ï¿½ï¿½ï¿½
Ġbeating
ĠCJ
Ġ177
2017
Ġdeprived
ĠRational
Ġdried
Ġsince
Reilly
osph
icker
ĠSus
ĠLumia
AI
Ġmoves
Ġcommenting
Ġuser
Ġaspiring
ĠPy
Ax
Ġinsol
ĠFold
Ġess
restricted
Secondly
VII
Ġcycle
ĠSloven
forestation
ĠKeystone
Robin
inently
v
ĠF
adjusted
ĠAbyss
Ü
Ġcompeted
ĠBenghazi
asses
Ġpresets
Ġshone
Ġinfall
Ġreclaim
6000
ĠKol
Canadian
ison
Clean
ãĥĵ
ĠRelic
Ġdedication
794
ĠCumber
Ġnations
ĠMaine
Ġinvasion
apo
Ġexiled
ĠMart
ĠLabour
ĠAthletic
Ġraft
ĠClay
Ġfragment
Alien
archment
Hur
silver
Ġsettlers
Ġcrash
Ġcannot
izon
Ġswaps
196
Space
Ġfaster
eed
Someone
iya
Attach
Ġtrim
ANS
ĠSeat
Ġattempted
Ġcomple
Ġflick
Ġskim
ĠStudy
Ġsoftened
Ġvisitation
worm
chard
enance
Ġmarathon
Ġupward
wb
Ġwhen
Ġregimes
Ġj
Ġguilty
Ġfol
best
Ġenacted
ĠCrypto
ĠLIST
Ġ25
igration
enburg
ĠEmpty
ORK
ĠTrib
dot
Ġtorped
ĠJac
blance
ĠDPRK
Ġdeck
formance
ĠTechnical
ĠMcKin
Led
ographers
steps
ĠOilers
Ġruin
Ġstrikers
stri
ĠInspector
Ġappend
Ġdescent
Ġ660
Ġnotch
ĠCurve
Ġ1865
Ġ53
lein
ĠPeriod
bearing
ĠGuatem
Ġkilograms
Ġadditive
ĠGenocide
473
Statistics
Ġtear
Ġsupremacist
jamin
ĠHTC
ĠFederal
ĠT
Ġwines
Ġpersuade
Ġcrushing
Ġashore
Ġwrapping
Ġeras
Ġdism
none
ĠProfessional
Ùĩ
VG
ĠTutorial
Armor
Ġfranchises
Ġexercise
ĠNope
ãĥ´ãĤ¡
Ġshame
Ġharmony
ĠNSW
iliation
Ġvo
age
Ġskip
Ġdistributing
mong
upon
ORT
ĠSometimes
Within
ĠCongressman
Ġanime
Ġdegrees
ĠCookies
AAAA
ĠBMW
Ġcider
Ġsubtitle
ĠThor
ĠImport
ĠStatic
ĠChero
Ġcheckpoint
ĠKatz
Ġmsec
Ġimpressive
ĠWhatever
Ġmagazines
Ġcriminals
charge
Ġprosecutions
mol
":-
Ġowes
Ġmonitored
't
ĠExt
Ġbetrayed
ĠLSU
served
Ġbully
Ġeq
ĠMethod
vals
Ġhypnot
Jam
oteric
Ġsubject
ĠMarket
ĠPCs
attered
Ġhelpers
Ġcomplying
ĠDry
Ġlicences
Ġclumsy
'.
Ġprob
Cap
Ġrefunds
Ġtreadmill
Ġtelecom
ĠUpgrade
ĠGREAT
Ġmocked
Ġeveryone
Ġcompare
ĠBenson
omin
Ġversa
ĠTerm
ĠAdolf
ĠShots
Or
heid
HUD
occup
Ġscores
aps
Ġinspections
Ġanch
Ġelites
odium
ĠRES
anches
Ġdiplomats
renched
Ġbetray
ĠRih
Ġdefy
880
natural
api
Ġlongtime
Ġcreamy
Ġbeam
Ġresin
via
uggets
Ġselects
ĠExplos
piracy
aaaa
).
ĠDirectorate
ĠTac
Ġdamned
Ġinformational
Ġscholar
aded
ĠBale
ĠDiversity
Ġgrandparents
ĠRebels
Ġviolations
Ġconsequently
parable
ĠPassing
icator
ĠCinnamon
Ġ!!
INGS
lin
Ġdies
Thu
ĠMoore
Ġscanning
605
Ġantioxid
ĠNine
ĠBai
Ġloopholes
Ġakin
Ġsupplies
Ġbasic
Ġtest
Ġpositive
Ġaccomplish
Ġhardships
ĠPowder
Ń·
ĠBW
brush
Ġconclud
ATION
Fab
Ġmovements
Ġvalidate
ĠSCHOOL
zag
ĠMavericks
feed
Ġdotted
Ġgirlfriend
LEASE
ogue
Ġcommander
Ġmined
Ġflourishing
ĠAlso
ĠTR
Ġpave
Ġprompts
ĠPell
Ġvis
Ġshortcut
ĠLiberation
Ġammonia
shots
HO
Ġfiance
ĠFirst
Ġpark
ruit
ARCH
Ġmenus
Ġformulate
ĠMine
Ġgastrointestinal
ĠUkrainians
âĢĶâĢĶâĢĶâĢĶ
ĠBend
pun
ĠSPECIAL
tains
entry
Ġg
Ġrecruiting
Ġancestral
ĠRamos
acco
Ġmosque
Ġ2022
ĠPrec
Ġhealed
ĠDiscrimination
ĠMilton
effects
Ġ33
Ġexamine
Ġaft
ĠRothschild
ĠÙĪ
Ġcunning
Ġlivest
berus
ĠMID
"
Ġmaximum
Ġgro
Ġfiber
uld
9999
ĠYas
Ġoperations
Ġabuser
grades
added
Ġexperts
ĠGins
noxious
ĠFounder
Ġrecorder
ĠMusic
Ġdistracting
ĠPowell
Ġprisoners
ĠAnders
Ġrobbed
Ġdeterrent
hesion
ĠOhio
ust
Ø
ĠChick
Ġtreacher
£ı
Ġroads
Ġhairs
Ġlicensed
ĠCPI
Ġpursu
ĠBarry
Ġporn
Ġcur
ĠQuest
Ġethnicity
Ġvoicing
Ġoccupations
Ġcourageous
Fight
Ġcollaborations
ĠShak
Ġcontra
ĠGov
Safety
Ġcrippling
Ġally
ĠPetty
Ġsuspect
ajo
Ġsubscribing
ĠWrite
Ġincor
ĠMun
hower
Ġspots
FP
ĠPlum
be
Ġsemifinals
Ġstaggered
aldo
Ġalas
Ġ155
elman
continental
ĠPUBLIC
Ġsabot
of
Ġstealing
Ġpropositions
ĠReal
Ġmeat
ĠCCTV
Donald
nih
ĠAnth
Philadelphia
ĠSquid
ENT
Ġpair
ĠAus
ĠObs
Ġmoot
181
ĠFrazier
common
Ġcable
ĠGoldstein
ĠCountdown
Neil
ĠSidd
Ġstra
Ġstart
Ġwrong
Ġmis
though
marked
Ġmerits
ĠHindus
ĠEm
room
Ġcomponents
ĠEmmanuel
EW
Ġindict
Ġnoting
ĠHomeless
md
ĠScotch
Ġnonexistent
Ġphosph
oids
attering
ĠCir
Sold
Ġspecifically
ban
Turn
Ġinverted
ĠFeature
ĠRP
Ġhalt
Ġspotted
ĠTruck
ĠSailor
ĠFrequency
imens
%:
arning
~~~~
Ġfru
Ġstreamed
Ġfading
Ġaccompany
Spe
alter
Ġbricks
mania
Ġtorpedo
fx
@@@@
]:
çĶŁ
ĠMang
ĠSmoke
Ġingred
Ġlitres
ĠPost
Ġautop
team
Ġvirgin
Ġretirement
ĠEE
Ġactive
ĠLang
ĠPine
Ġdatasets
CB
Ġdenies
?!"
Ġsupplier
Ġsprinkled
Ġchurches
Ġradiator
46
Ġpropagate
Ġ3000
415
Ġunreasonable
Ġdodge
raft
Ġyoungster
Ġprovoked
Ġkill
Ġravaged
Ġunseen
ĠLok
ĠVaults
Ġbreathing
Ġrim
Ġguerrilla
Ġ100
Ġpixel
Deb
uctions
Ġrepent
Ġfirst
Family
Ġclient
ompl
ĠOlympics
Ġseries
ĠInvestigator
Ġsinging
Ġstepped
KI
ĠCAD
php
ĠReviews
Ġdelegates
ibal
Ġcommunism
inning
acking
Ġimplying
Ġconcerted
ĠCall
ĠStamford
ĠPAR
Ġpostp
ĠUP
Ġfinancing
ĠMell
ĠStatistical
Ġinsurrection
ratulations
isites
Ġensemble
ĠOle
erenn
ITNESS
Billy
reth
ĠStein
Ġunrelated
Ġdatabase
ĠDeV
ĠObama
Ġmeanings
BIP
ervation
ĠCure
Ġwaved
usal
ribe
Ġattachment
ĠImpro
ĠSTR
Ġfinally
Ġsurround
yre
Ġoffic
ĠAdviser
gently
Ġclay
Ġnegative
ĠKrug
ĠNFC
etti
Ġpeace
option
CLE
ĠSubway
Ġskills
ĠArchitects
ĠFranz
ĠCap
ĠMak
Ġtouchscreen
Ġchaired
èĢ
ĠTip
atically
Comm
NEW
ĠKats
Ġsock
Ġsudo
slice
Through
Offline
ĠAsc
wm
oled
Ġoccupies
ĠDeclaration
fab
ĠScream
ĠLindsey
Ġbathroom
ĠKis
UNCH
Consumer
Ġsacred
raf
ĠCars
Ġfirsthand
Ġattempting
ĠTup
Ð¾
ĠSupports
ĠTempl
Ġori
Ġperceive
writ
Ġmonitoring
Ġharrowing
EEP
Ġinadvertently
Ġtitanium
Ġhamm
Ġdepart
DC
Ġdirections
Ġbrush
Ġneighbourhood
Ġimagined
Ġopen
Ġreasons
Ġdispatch
ĠYesterday
cki
Ġforgiven
Ġcongestion
ĠCharg
OOD
ĠSerious
ĠNeo
anut
ĠCostume
otto
alert
1993
tyard
Ġinsufficient
apse
riger
rupted
Ġarrives
387
Ġenzymes
Queue
Ġdrinkers
Ġpic
VC
''
ĠWyatt
ĠAreas
ĠIndie
Ġbc
ĠWorld
rehensible
Ġlectures
ĠZe
Ġsaddened
Ġstrains
Ġchin
ĠPistol
temp
Ġmill
luaj
ĠRO
ą
ĠLub
Ġpiston
ĠTogether
CP
Ġreusable
hy
Ġpunch
ĠAPPLIC
flash
Ġcomes
Ġhurricane
Ġcarriers
laws
Se
winner
Ġcommemorate
Ġbandwidth
Ġnutrients
aku
Online
ĠPrivacy
their
qi
orting
orient
Ġ285
maybe
ĠAs
Ġoutl
Ġvenom
ĠHoms
Ġpolicymakers
spl
Ġabort
phen
Rh
Ġransomware
rollment
ĠArena
ĠUniversity
Ġepigen
ĠGus
also
kus
Charg
Ġsidew
crim
madeupword0001
Ġwasting
ĠWitcher
Ġcirculating
Ġdescended
++
omes
Ġsinful
Ġperipheral
Ġmathematical
guyen
Ġprefrontal
Ġdecipher
Ġoccurring
Ġawaited
Ġrhet
Public
Ġextr
Ġwarp
ĠLarry
ĠEllie
Ġether
eworthy
ĠPri
Ġinfection
ĠSER
Ġjuxtap
Ġenrol
umers
ĠVoice
ĠFallon
RIC
Wolf
ĠFul
etary
Ġbetter
you
're
Andrew
ppel
Ġfuner
ĠAssault
Sales
orough
agy
ĠBrain
Ġfors
Ġindependently
umped
ĠWeiner
Ġtrillion
ĠGST
Ġsubjug
ĠWorlds
Ġrotten
ĠYad
Ġvim
Ġ[/
Ġbusiest
adle
Ġcelebrating
Ġchannels
Ġfirm
ĠRoche
Ġcollaborated
ĠMacedonia
ĠAbel
ĠCher
Ġhotly
Ġinvestig
Ġcase
iana
Ġplunge
ĠProtocol
Ġbarbecue
ale
Ġarsenic
Chuck
ĠRemain
should
rets
Ġsd
Ġ([
Ġhappening
Ġlineup
Ġdysfunction
ĠSav
Ġ"âĢ¦
Ġfinan
Ġgloss
Ġsunglasses
Ġtreaties
Ġfright
ĠDespair
ãģĵ
Ġselecting
Autom
Ġnamed
anship
major
ATING
Ġconverter
ullah
Ġgeop
ayson
Ġtweak
ared
Ġkey
Ġimmediate
Requirements
ĠLego
tie
ĠGol
Ġfreaking
--------------------
ĠMuss
Ġturnovers
Ġengulf
548
ĠBraz
ĠUNCLASSIFIED
å
edient
Thumbnail
UNE
oleon
Ġdisaster
ĠReserved
ĠSons
ĠHu
Ġhandful
Ġtension
ĠWend
ĠReverend
ĠStrawberry
Ġinsertion
ĠAN
/>
Ġstomach
Ġ1938
Ġcommunities
Ġblasphemy
Ġtight
adh
Ġinfringement
ĠBugs
Ġcooper
Ġlegalizing
assium
Ġarticle
ĠDove
Ġremnant
ĠAnna
Ġclich
gradation
Ġdarts
ĠOu
ĠLiterature
oring
Ġbluff
Ġtraveled
ĠUAE
Fair
ĠOlson
azes
everything
ĠTycoon
ĠKorea
Ġdefendants
Ġleash
ĠBrune
Ġoptions
Ġvoices
Your
rigan
ĠFra
Ġii
hetical
Ġdiffusion
ĠRepublic
ĠJess
duct
illo
Ġforeskin
Ġdouble
Ġworried
Ġlisteners
Ġrecalled
bian
29
Ġboolean
Į
Ġimmun
plane
587
Ġjail
Ġintent
ĠJournal
ĠBlueprint
ĠRipple
ĠBoy
Ġunorthodox
Ġworked
256
Ġwait
Ġmyriad
vance
ĠInternal
Order
Ġturned
Ġhoping
aving
ichi
Ġintro
Ġborrowers
Ġpending
Ġembryo
Ġgroin
ĠAlexa
Ġ<[
Ġmult
Ġsemif
Ġcharging
Ġracks
dy
Kid
ĠSteps
Ġpleading
elfth
ability
essel
Ġqual
Ġtray
Ġartist
Ġrede
---------
Îº
ĠZimmerman
Ġconservatism
signed
auder
iates
Ġbuffers
ĠStretch
riors
Status
ĠGoldman
Against
Originally
uded
ĠVoters
Ġmicro
yn
Ġironic
Ġcellar
Ġavoid
Ġenforced
Yo
Ġforeseeable
women
Ġhassle
Ġbandits
Ġlam
inia
Ġgoods
Ġunexpectedly
Ġflavours
Ġyet
Ġpopul
Ġsnake
Ġstatute
ĠELECT
Ġsugg
eters
aying
Ġarmour
Ġfeatures
oud
paio
Ġrecognizable
Ġstreaming
Sav
ĠIvan
Ġbecomes
Ġblocking
Ġchosen
hei
ĠSpan
Ġridiculous
Ġencourages
é¾įå
693
Ġobservable
ĠGuan
Ġteenagers
wo
Ġsurviving
oen
Ġminimal
ctors
ËĪ
esar
Ġreceptive
Ġdoubt
ĠBrussels
itely
ĠNova
Ġscorn
watching
ĠSour
Ġcolleges
Mine
694
Ġmunicipality
Ġpopup
Ġblinked
rium
ĠTr
Ġracism
Ġillust
Ġsu
Ġnegotiated
Ġrequested
Ġvirtually
Ġbats
ĠOz
ĠElse
ĠDomin
ĠFury
Ġordeal
Ã©r
estation
uchs
ext
ĠAmericas
ĠLen
Ġbullets
None
ĠDid
Ġsurreal
Ġhumankind
atos
awed
ĠPrint
Ġ136
Ġchoices
Ġfinancially
Ġshadowy
Ġopposes
Ġill
Ġdisposition
oss
Ġresolves
ĠHipp
Ġendure
ĸļ
Ġdef
Ġbakery
Ġsynchronization
fml
Ġdifferent
ĠTul
Ġjunction
ĠInnovation
ĠUd
Ġuneasy
iral
Ġcareful
Ġinjecting
skin
Ġcrammed
Ġforthcoming
ĠWillow
Ġremorse
ĠBlood
ĠDouble
Ġpresidency
forced
ĠMessages
upper
ĠGPUs
ĠSHARES
ĠTemple
mouth
nova
conv
ĠLeh
stros
Ġdenim
Ġfortunately
Repeat
lehem
utonium
Ġpurge
Ġdepressed
enses
ĠRequired
ĠTotally
details
ĠClarkson
ĠAntarctica
ĠSprint
Ġcalling
ages
AAF
Ġspontaneous
older
Ġrestart
ĠSources
Ġresilient
Ġmayors
ĠStay
Hol
Ġissue
ĠSixth
ĠNic
Ġcontacts
Inter
compatible
Tour
Ġrulers
gur
Ġstrives
ascular
ileged
Ġpresum
Ġdumps
Ġgen
Ġprone
Ġawe
ĠNormandy
Ry
Ġdebating
Ġviolet
ĠDMCA
Agent
iland
anski
Ġshirt
ĠLash
rie
imal
Ġthought
Ġunveil
189
ĠSTART
NL
Mobil
å¥
Ġexaminations
ĠGlou
\\\\\\\\
Ġpursuit
115
ributed
OE
ĠCrowd
Ġpiano
abuse
ngth
ĠThus
Ġbelongings
rought
FINEST
}
ĠNeither
ĠSome
Ġfrustrated
ĠSantorum
ĠFlat
ĠConduct
Ġheartfelt
ĠHighest
ĠBiden
atural
los
Ġnotices
Ġextraord
ãĤ¡
uto
Robert
Ġoverseas
script
ĠInstruments
Ġexist
simple
Ġtubes
Ġ2048
First
Ġadmitted
Ġblame
Ġkeyboard
ĠGarg
Ġdegrade
Ġswing
Ġviolin
Ġ407
Ġconvened
ĠDocument
ARGET
j
adesh
ongevity
ĠWalter
tel
ĠSi
ĠPool
Ġsuspense
Ġpeeled
jar
ildo
PG
Ġchairs
Marx
Ġvaluation
Ġhanding
Pred
Ġapi
orde
ĠRead
Ġfirmware
Soon
ãĥ³ãĤ¸
often
SIM
ĠMog
ĠMoor
Ġt
ĠTransport
Ġrepentance
ĠMakoto
ĠCam
Ġattendant
ĠHappiness
ĠFinland
bay
ĠShay
Ġmetric
ARDIS
ĠJohannes
Ġsqueeze
ĠJakarta
pired
ĠMight
othes
Ġconsulate
Ġmusicians
Ġdevelop
ĠCafe
ĠHarper
Sy
ĠSP
ĠCourse
Ġtelecommunications
ĠFah
ĠPU
Ġperpetuate
Ġratio
auldron
Ġguys
Ġknows
eder
Ġgravel
ĠImaging
Ġmarkedly
Ġdependencies
Ġcatch
Ġ...
ĠAndersen
ference
arium
ansom
Microsoft
ithering
Ġoverflow
panel
Ġpresupp
ĠCopy
Topic
Ġguns
Ġholidays
ĠContracts
Ġsusp
Ġdetract
Ġstarters
ritis
Ġmyth
secure
ĠHog
usk
Ġbreakdown
pected
Electric
hetti
å¾
Ġconstitutionally
Ġatoms
Blake
ologies
wen
ĠJak
129
hit
Ġsurveyed
Ġsafest
Ġpsychic
ĠPier
Skin
ĠSupplementary
Ġshocking
rendered
ĠBoeing
Ġtrivial
buquerque
irtual
####
ĠAurora
Ġdisp
Ġdawn
Ġ172
Ġrig
ĠLeap
Ġ269
Server
Ġmemorial
Ġorganizer
Ã°
Ġinherent
ĠAbu
born
ĠBarr
city
ennes
Ġmascot
Ġgem
udding
Ġcyt
Ġreferen
Ġdetainees
Ġevade
Ġcampaigning
Merc
urations
agging
iddle
Ġheck
RELATED
'';
Ġupheaval
âĸ¬âĸ¬
Ġresidents
viol
ĠMasonic
Ġpra
ĠWon
wegian
Ġkeeping
anta
Ġgranddaughter
ĠHolden
ĠHOT
Ġrecalling
Def
ĠBarb
ĠDAM
Ġ426
lim
ph
Ġanomalies
lete
IPP
ĠWinged
Ġaggro
Offset
ĠAppearance
Ġbruises
ĠCycling
ĠLay
reci
Ġdangerous
ĠAsk
Ġcorner
Ġdivine
Ġairliner
Ġpresidents
oidal
omnia
ĠForty
Ġcal
Ġgeneralized
which
price
Ġcases
ÃŁ
ĠWh
iri
ĠBangladesh
Ġenhancing
ĠMaher
ULL
ĠNarr
ĠCommunications
Ġcredibility
Ġluxurious
ĠHouses
Ġsteered
Ġlone
STAT
ĠKnife
ĠSniper
etermination
Ġwarr
ĠILCS
dry
Ġmum
Heat
Ġassociates
ĠAgent
Ġraised
soft
licts
Ġcritics
Ġrentals
Ġgrinding
Ġhadn
ĠSaint
Ġmines
Ġaverages
Open
URES
575
ĠCambridge
Ġpolitician
ggie
Ġimply
²
Ġaffirmative
Ġawkward
ĠStun
Ġsetting
ABLE
ĠHussain
gging
George
ĠELE
arching
GMT
ĠHorus
Ġwand
GROUND
bda
Ġvillains
Ġrituals
ociation
ĠGross
ĠIcon
hya
ends
fy
ĠCantor
391
Ġpond
Ġappears
Ġiconic
Ġlook
Ġoffset
ĠBase
ĠFactors
Ġroadway
ĠOC
âģ
Ġantidepressants
yrights
uish
erker
Ġmetast
ĠChevrolet
ĠHua
Ġbasketball
Ġcure
zie
thro
isive
Ġenforcement
Ġalmonds
Bell
Ġsuccinct
ĠPhilosophy
lished
ĠBrave
ĠPolish
Ġsuite
UAL
Ġhardened
ĠSad
euro
Ġbenz
ayed
Ġmurders
Ġpremiered
Ġlockdown
Ġ1946
SPA
ĠTanner
truth
ĠOvert
Tile
Ġpage
ĠCards
ĠSuccess
onz
Ġdefiance
046
lease
apon
Ġcul
LE
Ġviolent
Ġmothers
ĠPepper
Ġdisconnect
GB
Ġtower
ades
V
Ġpackages
Ġinappropriate
Ġshootout
boro
Ġmark
Face
ĠTruman
resp
Ġwildfire
Ġcalibr
blem
Improved
broad
Ġisolated
where
Ġrounded
ĠStudios
Ġyoga
lund
roc
mediately
ĠUkip
ĠJob
ĠPD
Ġcircumcised
ĠTre
Say
Ġsteam
ĠZot
ĠLuther
ãĥ¼ãĥ
uku
704
iated
onial
Ġselves
Ġeventual
Ġfoul
alse
Ġclassified
Beh
Ġâī
Ġmov
Ġpairing
icrobial
po
rid
ĠRazer
Ġsterile
ĠJuice
Ġalgebra
Ġmanufactured
ndra
clave
mith
Ġparamedics
ĠDistance
Ġseed
inka
ropri
ĠMas
ĠActive
ĠAsia
Ġ2005
ident
ĠEU
Engineers
uesday
hirt
oken
Ġholster
ĠDX
cerned
Ġbursting
Ġpatriarchal
Ġankles
into
SK
Tyler
Ġirrig
Very
Ġmental
ĠCthulhu
ĠLawyers
Ġbending
ĠIndustry
bus
Ġcontemplation
Ġhemorrh
Ġmeticulous
ĠVenus
ĠFemales
Ġreaches
Center
Ġhinted
Ġintriguing
ĠBaseball
EF
ĠJe
Ġdrilled
Ġmuff
ĠVerb
ĠNet
Ġcomprised
ĠHancock
Ġeff
alam
IRT
ĠCaliforn
ĠOrchestra
Ġalternatives
significant
Ġascend
ĠWally
Ġconduc
Ġcleric
lining
ĠPablo
aunting
Ġder
Ġadolescents
ĠAlzheimer
Ġgroove
ĠUDP
ĠPubMed
Ġcues
Ġunnecessary
lu
Ġafterlife
AGE
Sounds
Anderson
Ġfilesystem
ĠPrincipal
ĠCompton
indal
ĠVenom
Ġ1981
itty
ĠElm
nets
ĠSaber
Ġglyphosate
ioch
ĠParas
arsity
Ġsprint
Ġslaughter
IGHTS
ĠFIFA
Ġdepartments
Ġremarked
Ġglamorous
ĠPets
ocrine
õ
Ġresonance
557
Ġneighbor
Ġmercury
Ġresearched
recy
ĠMysterious
ĠThermal
Ġmetabolites
Ġperjury
702
ĠHuffPost
Ġstatewide
Ġwrought
agency
ĠEmb
ĠScience
ĠFreddy
Ġmoan
isel
ãģ®é
ĠSke
Ġdeceased
inion
ĠRecommended
osp
ĠAuditor
Ġwaterfront
Ġfragrance
highest
ethyst
Ġgenres
Ġlatt
Ġconsists
005
endra
ĠJury
readable
ĠCreation
heavy
ĠSTE
last
Ġsmelling
Ġoccupants
IFE
Yu
nesday
Ġcasual
Tok
Ġguess
ĠRadio
Ġwire
ott
ĠSec
Ġinherited
Ġspans
090
ĠService
ĠTournament
ressed
Ġseasoned
Ġarteries
rified
Ġbelief
Ġtotal
iances
Ġaccount
ĠKazakh
ochemical
1966
Ġaware
ĠMachina
ĠÂŃ
edom
Ġ26
Ġaccelerated
ique
ĠChannel
Ġpromotion
Ġthirsty
Ġcomed
ing
ĠCur
paragraph
Ġeach
Ġdecriminal
Ġastronomical
Ġequation
Ġgrap
What
und
Ġefficient
Ġtechnique
ĠTours
shake
ĠJeff
Mal
ĠLivingston
ĠSharing
Ġthickness
ĠARTICLE
Ġguaranteeing
ĠWhile
ĠCool
Ġsponsorship
Ġcornerstone
Ġbutterfly
Ġsurrounds
Ġcommitting
Ġlane
Ġexert
Ġinflation
zyk
Ġcurtail
Moving
Ġdecode
Ġnet
ĠParliamentary
Ġwall
Ġfelt
Ġprecept
ĠTrident
der
Ġsocialist
ĠCock
ĠDaisy
Ġ555
ĠDEM
ĠYards
Ġsched
Discover
Ġcruise
INC
ĠAmes
Ġhall
ĠInitial
ĠKlopp
Go
pg
Ġcarn
IR
ĠKaplan
Ġvetted
Ġnephew
Ġmascara
group
Ġacting
Reb
Follow
ilver
ĠCON
using
Ġcontests
Ġrockets
Ġcircles
ctic
instein
Available
Ġjars
ĠCrusade
Ġbills
ĠCOURT
\/\/
Ġvolleyball
Ġsteals
Ġforearm
Ġautomation
Ġbridges
ĠLic
Ġsequels
ructure
70
mg
ĠGod
Ġtools
ĠMi
Ġpump
edi
Ġwounding
stre
ĠReturning
Ġcontacted
Ġsmallest
Mar
Ġnatives
Ty
Ġrichest
Ġbrother
ifle
Ġsubjects
ĠCom
aro
ĠGoals
ĠBalk
Ġtomorrow
Ġnovelist
Ġ231
Ġcomplicity
Esc
ĠBucks
Ġ"@
urrection
Ġcocoa
Ġsalv
Shape
Ġmixture
onics
Ġcomedy
ĠTRAN
Ġmarker
ĠTWO
Connell
lar
endas
li
cons
Ġinstituted
rak
Ġjourney
particularly
Ġracial
ĠWithout
Ġavailability
Page
SPEC
hemoth
ixtures
ĠFedEx
ĠAverage
Ġserum
ĠDAR
Ġsimultaneous
Ġprosecute
Ġthirds
206
ĠBuckley
League
outher
ĠTOTAL
ĠAllan
ĠReyes
Ġparad
ĠBritt
Ġsavage
ork
Premium
noticed
ĠAmmunition
ilogy
ĠAlex
Termin
sf
ĠSat
independence
Ġstandard
igg
ĠCarrie
Ġuncom
ascal
Ġresponsible
ĠInit
Ġadapted
Ġpassers
ĠEverett
Ġroots
ERC
MF
Ġscattering
Sit
Pinterest
Ġinstr
Ġmajor
Ġentrants
versive
Ġscrutin
Ġreminder
ĠCornel
Bride
Ġdecades
Ġfuse
wake
Ability
Ġblogging
Ġaut
ĠHen
Heart
Ġtrickle
protection
Ġbackstage
Ord
Ġareas
ĠFreedom
ĠiOS
Ġenduring
Ġtilt
Ġarts
gpu
ĠPeoples
Ġunborn
itaire
Ġsupervised
Ġpint
Ġhumour
seeing
Mem
burst
Ġdisorderly
ruly
Tier
Ġrude
Ġrepay
ĠZah
ĠZion
Ġbillboards
ĠLevant
Cong
anoia
Ġpermitting
Ġunparalleled
orrow
Ġmut
ĠAlger
Ġcertification
Ġaccess
Ġupwards
amer
Ġkillers
Ġgra
Ġwizard
Ġconvinc
fixed
ĠCoins
Ġdeserved
Ã¤
Spawn
Ġmedd
Ġprecincts
Ġhed
Ġintroducing
ĠBritann
ĠTeddy
Accept
arts
Ġoutdoors
Ġbouncing
Ġdetermining
Ġvague
ĠBarrier
according
ĠIdeally
Ġdescend
Ġspectacle
carry
Ġgene
111
midt
conduct
Ġemotions
ĠHast
Sty
Ġurl
yards
Ġ475
Ġmaturity
Ġbeautifully
ĠBu
Ġtrace
ilation
emetery
ĠLuffy
ĠRPG
Ġentirety
ven
Ġsuccession
394
ESE
Ġprevail
Ġraces
Ġevangelical
ĠPreservation
Ġvul
ĠTackle
ĠBj
ĠOtto
anchester
Ġrenewable
Ġattest
Chain
Function
Ġcmd
Ġwillfully
Ġoccupy
Ġbrewing
Ġmould
ä½
Ġfundamentally
Ġcurrencies
aily
ĠTime
Ġremark
Ġgiants
taking
ĠAtomic
imer
Ġeaten
Ġchipset
loaded
ĠShah
SON
Ġvillagers
ĠPleasant
Ġcomment
eless
Latest
abama
ĠEnchant
Ġvacation
iom
Ġmanage
Ġdeg
Ġadvertis
Ev
ĠWink
Ġencyclopedia
ĠBerserker
Ġreflection
Ġcalming
Ġwarheads
ĠParts
Ġss
Introduced
ww
1975
ĠDowns
U
ĠAwards
Ġfestivals
Ġmercenaries
sb
Ġdeception
Ġ428
ysical
ĠBiblical
Ġsignatures
Ġoffence
ĠCastro
saf
ĠSanskrit
GU
124
ĠEld
Ġwilderness
Los
Leave
laugh
Ġbiochemical
ution
token
Ġdemocr
Ġconcentration
POSE
Ġawesome
1978
Ġpurposely
ĠCreatures
ĠCODE
ĠLiquid
Ġfinds
ĠSergeant
Ġrack
ĠAchieve
Ġ122
Ġcomplain
ĠRobert
ĠIMAGES
Ġunint
aceae
Ġdevice
hl
ĠHerbert
dra
Ġhref
Ġtil
uper
Ġtargeted
activation
feeding
Ġph
Ġlantern
Ġactivates
Ġnighttime
ĠDisable
Ġassume
ĠLancet
Ġconverge
Show
Ġthyroid
Ġreprint
ĠEnterprises
Ġcarp
earable
Ġrestaur
Female
ioxid
Ġdiplomat
ĠFou
Ġprobably
ĠCer
Ġflawless
Ġcoat
Bar
Ġpencil
Ġben
Ok
ĠInsider
ĠInstitutes
urate
istration
evil
omical
unn
ĠSabres
Ġmeters
ĠErie
Ġplagiar
ĠBrill
rehens
uge
ĠSimply
udder
âĻ¦
ĠUniversal
Ġdf
ĠUnc
ĠBuffer
ĠEsp
Lat
Ġdisks
Ġx
ellect
Metal
Ġspan
Ġdescrib
Ġautomobile
Ġfuss
ĠPRESIDENT
urned
Ġsalt
Ġpresidential
ĠMiami
gest
ĠRM
ĠPassword
ĠGiles
ĠUber
Ġmotivational
Ġ276
Ġ1899
biased
Ġpulling
ĠIMF
Ġ----------------------------------------------------------------
ĠSer
Ġpassports
Ġtransit
ĠGuru
ĠRoller
ĠGovernment
Half
Ġstatue
Ġindividuals
antine
beta
xxxx
Ġpeak
ĠTol
ĠInteger
Ġlipstick
Ġnodd
Bel
orman
ĠSH
Ġallies
ĠStewart
mod
ĠTong
Ġ330
Ġunatt
Ġflair
Ġpont
Ġspecialize
ĠGÃ¶
ĠNASL
ĠAnnotations
reditation
ardon
Ġantidepressant
ĠOutside
Ġinterns
ĠKash
ĠBillboard
Ġhateful
Ġcreep
drive
Ġhypertension
Ġsweet
ĠCanadians
ĠObst
ĠShinji
Ġavailable
Ġalleges
Ġfrown
679
Ġenticing
visors
Hey
Ġdefining
Ġservicing
Ġshorter
Ġspree
leading
Ġdefeat
livion
attled
ĠLeth
burning
watch
ifference
Ġclones
Ġ$(
Ġ38
lection
Ġretali
Ġforeground
etch
Ġstructural
ĠWinchester
Ġdisgust
Ġcorrecting
typically
omaly
VA
ä¸Ń
Lost
Ġteens
estyle
Ġexceptions
ĠTess
Ġbrazen
ĠInstructor
ĠBryce
ĠGrail
Ġparagraph
SE
Ġcared
ĠMoney
Ġok
Ġgetting
ĠLeaf
profit
Ġwindshield
hol
ĠVaughn
ĠAmount
ous
ĠâĤ¬
Ġbarriers
Ġbible
Ġpensions
atinum
Ġ580
Ġholistic
Ġstandby
Ġorchestr
ĠPersonally
Ġpossessions
row
Ġnegotiating
Ġabusive
ĠRemember
ĠLotus
Ġmarketing
Ġbathrooms
ĠINC
Ġbout
Ġexternal
Ġconsiderations
Ġperiodic
vous
unknown
Dep
Ġtrail
Ġhardcore
Ġpassengers
Ġ417
Ġ///
ĠRelations
Ġslaying
JUST
ãĥĩãĤ£
uffed
OVER
Dim
Ġcoolest
Ġaccuser
ophys
All
ĠDef
Ġbuckle
ĠShepard
Ġseparatist
ĠAvalon
66
Mc
mark
chool
Ġflashlight
doors
LGBT
Ġgenomes
Recomm
ãĥ»
ĠOUR
democracy
997
tool
Ġmalls
Ġcamel
Ġgroup
ĠAustralia
Ġcertify
ĠTechnique
Ġterrible
Ġresent
Issue
ĠReef
184
Ġhaunting
Ġraspberry
ĠMunicipal
isters
Cent
ĠGrizzlies
Ġ2004
ruption
Ver
Ġquotations
Ġunlawful
greSQL
lambda
ricanes
onse
ĠThomson
Ġcoffers
Ġinitiating
ĠãĤµãĥ¼ãĥĨãĤ£
ĠCena
?",
Secretary
Ġ1996
ĠLibyan
Ġnecessary
ĠFut
tr
Ġkingdom
ĠCatholics
ĠSpokane
ĠMets
ĠYuan
Ġdumped
366
Ġprec
Ġboys
ĠKit
Ġkitten
ĠWicked
Ġeagle
ĠBrowse
isphere
Ġguessing
Ġextracts
Ġsculpture
Ġcharacterized
383
sw
Ġ****
abis
ĠTablet
ĠMaze
ĠPricing
iane
Ġ71
Ġheritage
ĠFR
Ġsoldier
Ġpresently
quet
Ġbreakout
Ġarriving
ĠSta
Ġbarric
ĠRin
Ġmillennials
ISE
ciplinary
Ġdiffuse
detail
Ġprogressive
Sleep
ĠALEC
utters
Ġspr
Ġbreach
Ġbloc
ization
Ġinches
ĠMegan
ĠFUN
ĠSTOP
ĠBenny
Ġabdomen
Ġcontinually
affle
luence
Ġbiscuits
Ġalternating
ĠDemocr
asket
runners
ĠLocal
Ġbothering
amiya
Ġfeas
olean
Ġmanagers
Ġlayouts
KB
åİ
Ġtribunal
Ġprofessionalism
READ
Ġalready
ĠChapel
Ġhygiene
Ġyes
ĠLounge
Ġpointed
768
ĠHeist
heat
Ġkilometres
Ġcont
ĠDS
ĠKay
ĠPhase
PM
Ġnoises
ĠVoter
Ġdisbelief
Ġmobilize
Ġprohib
Ġnuclear
algia
ashington
Ġhike
agle
slow
Ġfont
Ġcollide
practice
EStream
ĠVIEW
Ġreactive
Ġinvention
Ġjets
ĠBarclays
ĠDefenders
Ġpuzzle
070
levision
ĠActress
Ġantic
éĥ
ĠTaste
Ġautistic
Ġpal
ĠStev
altern
Ġreelection
Ġwebpage
eeks
Ġproofs
vg
ĠHarry
eka
Ġexpires
ĠYan
medi
Ġie
Ġaddictive
leton
ĠGl
ĠOnion
Ġhear
Ġinvolving
ĠArkansas
ĠHungary
138
vey
Found
olen
ĠEQ
Ġbounty
ĠZone
ĠComplex
Ġonward
Ġheroes
aciously
Ġblinding
ethical
Software
Ġrog
ĠSinn
ĠSmile
Ġentrepreneurial
79
ĠQC
Su
ĠGuardian
Ġelaborate
otions
Ġob
Ġphilosophy
ĠTransportation
Ġav
Ġconfined
Ġlent
ĠExercise
Ġborrower
Ġseats
Ġpriorit
Ġinstinctively
ĠEthereum
ĠCNS
Austral
Ġvisibly
aband
Ġmodifying
Ġvolt
forge
EStreamFrame
Ġax
ICS
Ġactions
Ġwise
Ġnotice
Ġsuccessor
Ġcontroller
Ġroster
Ġproprietary
ansen
ilon
ĠReply
ĠArray
ĠGalileo
ĠAirbus
lde
once
Ġlooting
verend
Purchase
org
apter
ĠJamal
Ġblocker
Ġoppressed
isen
ĠIrma
Ġinterfering
Ġconfronted
Ġunfolding
arkable
Ġpains
Ġreapp
ĠNFL
building
ĠEvening
Ġrested
ĠAnimation
ĠElon
igrants
Ġstack
Ġanecdotes
Ġfavoring
Ġpotentially
ĠPeak
Ġen
ĠAcademy
torn
Chance
ploy
ĠRabbi
Ġgrouping
between
Ġembarrassment
her
ĠPRE
Ġincluding
Ġbloss
istar
uously
Ġbridge
lbs
cit
ĠCaucasus
ĠHospital
Ġteaser
Ex
ĠClassification
perial
LIST
ĠLans
bishop
fiction
roximately
885
Ġflexible
Ġreactions
ĠRicardo
Ġlame
Ġpack
Ġclassify
tained
Ġwinners
Ġjihadists
Ġfri
rig
Removed
ĠKinect
Contribut
Ġhawk
urers
Ġbroch
28
prints
ĠMom
Semitic
iani
ĠSHOW
ĠHayden
Ġcontinue
ĠAfterwards
Ġobserving
Ġcomplexes
Oregon
IVES
ĠPotato
fif
defense
reditary
Ġreintrodu
Ġtop
cue
Ġconclusive
ĠVolume
ĠCyrus
Ġlots
Ġwatched
Ġlifted
Ġcontroversial
ĠÂ£
Ġspeedy
Ġskull
Ġalien
nerg
Ġramps
Ġstalking
ĠFriend
ĠHond
Ġshampoo
Ġanybody
ĠTexans
Ġteasing
ĠSymptoms
ATER
ĠCAP
Ġdirective
ĠJarrett
wcsstore
ĠSetFontSize
Ġsilence
ĠCook
Ġscholarship
Ġfor
ĠSno
Ġoverload
Ġbenches
Ġracing
Ġprecedent
584
ĠBOOK
ook
Ġassumption
ttes
Ġretina
atin
Ġreadable
ĠSpells
akis
Alias
Ġfloating
Ġtransformative
ĠLucy
ĠJesse
Ġbeacon
ĠIllust
Å
ĠEggs
rises
Ġ×
Ġlich
ck
Ġhandgun
Ġnutritional
Ġchooses
Ġbot
Ġram
ĠIl
Ġmourn
ĠAf
ĠAlexand
Ġbloodstream
Ġactor
ryption
Ġabiding
iphate
Ġsax
ĠMaritime
ĠWonderful
controller
ĠPlatform
ĠQueen
Ġbare
Ġproject
ĠTurn
gregation
]),
Ġartery
idelity
ĠSeed
"""
cock
Ġengineers
ĠFit
Ġnegotiators
Global
Josh
Ġrand
reddits
Ġloved
Ġlat
ĠBIG
ĠKits
place
Ġsubconscious
ĠAST
ĠVehicle
ĠPerry
Ġmultiple
ĠRest
acht
ĠLinks
Ġdiagnostic
ĠHM
alted
ĠÂ¶
rency
Ġistg
ĠDifferences
comm
Ġstrut
ĠEarlier
ridge
Ġlecture
Ġenhances
ĠLenovo
ĠDj
Ġadvis
Ġrenewed
ĠTimbers
archy
Ġstyle
ilater
ĠLyn
Ġurged
Ġpa
ĠProposition
Ġprivilege
monary
D
Ġsmile
igmatic
244
Ġelbows
esteem
Ġcounty
Ġcapped
å¤
Ġincurred
Ġstabilize
ittance
Ġpsychologically
ãģı
Sim
ĠMustang
standing
Ġpreaching
Ġindicator
Ġnuance
Ġsorting
Ġthr
ugu
ĠSeg
Ġbluntly
ĠHebdo
Ġblue
ĠAssets
Poly
Ġ780
Ġpositions
Ġwrap
oux
let
Ġscreaming
amboo
ãģ¾
Ġsociop
Ġtweeting
opoulos
istry
ĠCasual
agh
Ġmagnets
Ġpieces
Ġerr
atism
Ġfeminists
Jen
orio
ude
October
Want
Ġsuccesses
ĠHier
Ġbegins
adjust
Ġblockchain
Ġpsychotic
Ġapproximation
utory
Ġpredicate
Ġcommitments
Ġpredictable
Ġcovered
usion
Ġquantify
Ġyou
ĠRusso
606
ĠRAW
ĠNASA
match
Ġdevoid
ĠGn
ĠConquest
Ġwelcomes
ĠArist
ĠGinny
ĠRecep
âĿ
ELS
Ġdebacle
odor
Roger
ĠInflu
ĠPlugin
ahan
ĠBry
Ġhis
Ġshaft
Ġregret
ĠBaylor
Ġextensions
heastern
Ġsalty
ĠRare
Ġtreacherous
achy
Ø¯
ĠPuzzle
Ġsever
olded
ĠBought
Ġface
bour
Ġveh
Ġ``(
Ġbasement
Ġnamely
ĠKids
Ġ30
ANI
Ġtem
Following
ĠPosition
cover
STE
ocl
Ġstarter
Ġ75
Ġsubsidy
ĠFine
Ġgram
Ġharshly
Ġabundant
ĠAlways
Ġfaire
Picture
ĠSUP
Utah
Ġinduction
cking
ende
Ġsurvived
Ġheavyweight
ameless
Ġpractitioner
Ġdig
Ġvicious
ĠBottom
Ġunderestimate
imates
ler
ĠTik
Ġdegraded
arson
ĠMarina
ĠReed
Ġopting
Ġmetaph
ĠSelling
ĠFOIA
Ġrespondents
eve
Ġbuildup
Lab
uning
Ġcafeteria
........
ĠArmor
Breaking
Ġ1947
Ġ88
urden
Ġfamine
Source
Ġviolated
ĠNexus
1500
Victoria
Ġtail
Ġexp
Ġrect
ĠGar
STR
iscal
LG
opted
Ġprimal
Ġfps
Ġlifes
microsoft
ancers
Ġchord
air
ĠArab
Ġfairness
Ġfian
Ġspilled
ado
emet
Ġliteral
Ġfixing
Ġparalyzed
adra
Ġsticker
Ġactivities
Ġunse
ĠCertificate
ãĤ¨ãĥ«
Jenn
ĠFla
Ġclothing
Ġobvious
ĠKlein
ĠDrunk
Ġrookie
Ġreceipt
gaming
Ãº
Ġterrific
Ġpilgr
Ġconvenience
ĠIbrahim
olls
places
vernight
ervatives
Ġerotic
Ġpicnic
ĠChronicles
203
ĠVermont
Ġhelps
ĠKu
Ġsigh
ĠSam
ized
Ġabsent
Ġcoast
Ã»
Ġwa
ĠEleanor
Ari
ipped
ĠCBO
Guy
Ġspawning
UFF
Ct
ĠIowa
Ġvalley
OK
Ġvoluntarily
Ġadjud
Ġscant
ĠLIC
stown
419
chemist
ãģĭ
Ġexting
cair
Ġhatred
gins
Ġswoop
000000
450
ĠShall
ĠPerception
uders
iox
Medium
Ġphones
Ġdissatisf
utf
skilled
590
ĠHours
ĠBig
Ġextremes
Two
1965
Ġ12
Ġopens
ĠFest
Ġpaperback
Ġslash
Ġcores
ĠAfghan
ĠCarney
AY
Ġast
317
Ġexploring
Ġorigins
Ġmiser
Ġunveiled
Shadow
Ġoutlined
ĠVictorian
Jess
Ġchip
ĠManafort
Ġnotebooks
CRIP
Category
Ġ!
Characters
Ġforced
agn
ĠXX
Ġboasts
ĠKaty
ĠTECH
yx
ĠHollywood
Ġhedge
Ġmouse
Ġtexted
Ġrant
ĠCors
Ġexcessively
643
Ġspecifies
Ġflickering
Ġairports
Ġspun
andra
ĠBour
UTION
Ġove
vana
ĠReceived
fal
Ġlambda
ĠWag
Ġguitars
Ġ512
ĠÂ°
Vers
Ġ'/
Ġtraining
Ġblessed
ĠLaden
Wallet
561
Ġdownloadable
>>>
oub
Ġgenetically
spir
NEY
Training
ĠAlbum
baugh
Ġtiger
lected
Ġdeterior
Ġgroundwork
221
Ġdist
ĠAtlanta
ĠBert
Ġmulticultural
Ġgou
dk
ĠUnd
Ġadapting
Ġcartridge
||||
å¤§
ĠAW
Brow
Ġhelic
Ġunequal
ĠBlank
ĠTodd
Ġpublic
Ġplanning
ĠValerie
Ġfreedoms
Ġ520
rylic
Ġtidy
Ġillustrates
Ġnon
ĠShot
Ġrequests
cases
secution
Ġ197
Ġ::
Ġtone
Ġshrunk
Ġbatteries
275
geoning
Ġby
Ġanterior
Ġoptimizations
EMA
ĠSamoa
ighton
Ġpuzzled
essment
Ġconnect
Ġemphasizing
Ġtransportation
requires
Ġgrat
ĠRetrieved
Ġ1977
register
ĠMag
net
Ġuns
Ġwhore
Ġhaunted
Ġdesperately
Ġembarrassed
uary
ĠPapers
Ġbottle
Ġbrick
okÃ©
inoa
ANT
Ġpersever
outh
``
Ġ~/.
Less
ĠHalifax
ĠScot
Ġaggress
Ġwills
Ġproblem
roying
Process
ĠPER
Ġslower
Ġcrimes
painted
London
ðĿ
Ġbour
ĠDaw
ĠDirty
ĠNu
ĠExternal
ĠColts
ĠSimilar
Arsenal
Ġmounted
ĠPlaint
Ġgold
ĠClifford
ĠNorway
Ho
Ġlag
Rich
Ġimproved
scribed
pose
umbling
Ġwitnessing
pots
hetically
Ġchopping
Ġreversing
ĠA
Ġetched
ĠChattanooga
ĠXV
oine
ĠVlad
ĠPhen
WP
Ġamazing
Ġsecurities
Ġambassadors
ions
Ġseism
ĠRage
Ġfoes
Ġpatri
Ġthrott
Bear
Ġlawfully
vich
Laura
Ġphenomen
Content
Ġmemes
Ġgoodies
Ġremovable
workshop
oven
ĠSocket
teness
Ġ1700
Ġdocker
Cash
Crit
ĠBust
LAB
Ġwelcomed
Ġescalation
Ġscrolls
ĠGodd
XXXX
Ġmetropolitan
yrinth
ĠExec
Ġtalks
Amid
Ġant
ĠPhilos
Ġinvis
matical
Ġcryst
Ġ8
Ġ335
cludes
Ġreleased
Ġcompromised
Ġimitate
Ġplay
dr
Ġcogn
Ġrelics
ĠDetected
ĠFailure
Ġtold
lynn
piring
Ġchemist
ĠWeak
Image
Ġcassette
Ġpriesthood
Response
Ġoverlook
Ġprovisions
Ġwalked
ĠEdition
berries
ĠBabe
generic
umbnails
ĠVitamin
å½
Ġproportions
ĠRs
Ġfires
Ġcomprises
Ġcountries
ĠArts
Ġ(+
ĠStatus
Ġshortest
Ġcamouflage
Neal
imir
Ġenvironmental
ĠHOR
itual
ointed
Ġendorsements
ivering
fresh
ĠPiercing
hospital
ĠScenes
Ġstage
Ġstakes
Ġcomplimentary
Ġmile
ĠAcross
enn
Club
Ġshaping
ĠWhen
Ġtens
meyer
Ġconversions
ĠModern
ĠRegistered
aired
Tem
ĠBlend
ansson
osterone
Men
Ġlandslide
ĠChapter
Ġblaster
Ġdeclines
ĠTraining
That
ĠMalone
inn
operative
Ġ950
ĠDanger
radical
Neg
ĠDraper
Wide
ecided
Ġgave
public
iot
ĠHib
Ġfavourites
Ġasc
ĠJaneiro
ĠGreenwich
VO
Ġib
Ġsleeper
yss
SourceFile
Ġconvey
Ġquoted
ĠBUT
ĠBenedict
peat
Ġskirts
Ġauthority
ĠGrants
ĠMilitary
ĠBrandon
Ġjava
Ġmeasure
ĠFree
ĠAlicia
Ġholiday
Ġhistories
Ġcovenant
Ġexodus
ĠSmy
legraph
closed
Ġschedules
Ġtame
057
ISO
ĠFrie
Ġsubstantially
Ġtranslates
ĠCommodore
ĠChloe
undo
âĸº
ĠFame
Ġappreciate
kee
Ġdreadful
Ġhonor
Pen
ĠWI
Ġexecutes
ĠDerek
Israeli
ĠChic
Ġbeta
Ġcontraction
909
Pr
Ġsubway
Ġexamines
Ġexpertise
Ġinjunction
herer
Ġparts
Ġjun
Ġdebts
Ġdispensary
Hu
reason
Ġcomma
Ġmisguided
usual
vu
Variable
Ġgir
Ġsteroids
ĠPhilly
ĠNy
ĠPsych
oute
bul
Ġtimeless
ĠThro
Ġbi
pletion
1983
Ġtentacles
"))
ĠHandle
Sign
ĠIBM
confirmed
an
ports
ĠDirect
Ġjunk
Ġforestry
Ġlocker
Ġecosystems
~~~~~~~~
Ġdots
ieft
Ġferocious
FU
ĠNeander
Ġdisplay
fixes
Ġbarb
Ãĥ
uers
esse
ig
Ġcheese
Ġobligation
Ġfertilizer
Ġrevealing
del
Ġannounce
ICA
Ġfisheries
Ġallergy
CCC
icus
Ġreun
Ġbarely
ĠSanta
ĠPatty
Ġbeing
uti
ĠBerman
Ġlarg
ĠHemisphere
rollers
Ġsighting
literally
ĠAvg
Spirit
ĠShotgun
Ġapopt
Ġ(%
ĠCroat
hetto
Ġedible
Ġrewritten
aturally
ĠPanasonic
Ġoptim
Ġpie
OB
ĠPelosi
Ġrealizes
Ġmotions
Ġpharmaceutical
Like
Ġupheld
okingly
ensing
Ġtyph
past
Ġè£ıè
ĠLeica
netflix
inse
Ġfunctions
Ġencoding
ĠUrban
Ġweeping
Ġmalicious
Ġpretend
floor
Can
Chinese
aber
Ġfertil
itter
ĠIndustries
likely
ument
Ġbenchmarks
Ġdiscord
Ġfermented
Ġlegions
Ġsects
iq
Ġrecip
Ġdetermine
Ġpermits
gr
ĠCic
ouple
ĠMilitia
Ġforemost
Ġthough
Ġhack
iques
183
illet
ĠWeinstein
Ġfees
Ġillnesses
ĠLights
Ġstriving
Ġsoften
Lock
ĠRunning
Ġremod
Ġspreadsheet
ĠParticipation
visual
CO
px
ĠConstantin
ĠArche
Ġhypotheses
Ġsecretion
cause
Ġnetted
ĠCaller
ĠInterstellar
Ġillicit
cium
ĠOPEN
ĠChurchill
ported
Ġhumiliating
ĠPearson
ĠPanc
Ġubiqu
Ġlittle
Ġsubstance
Ġgoalt
ĠLatter
ĠPrivate
Ġenchanted
Connect
Ġsuccessive
Ġem
Ġmasturbation
ctl
Ġflood
Ġwater
Ġspecially
Ġrequisite
ĠFTC
icts
now
Ġfamily
realDonaldTrump
ĠVince
rote
ĠSieg
tical
ĠTopic
Liberal
yet
ĠUruguay
Ġfounded
ĠOculus
Ġans
ĠRaces
Ġremem
109
Ġ"[
ãģĦ
easy
Ġbooze
Lo
388
Ġsanction
ĠIndustrial
General
Ġchuckled
Martin
ĠWestern
uality
owered
877
jud
Ġpitching
Ġensured
Ġduly
384
Feature
Ġsizeable
Ġesteem
Ġbabies
Ġcoughing
730
iggle
Ġrebels
Ġnodding
Ġgrip
Ġcitizens
Ġse
Ġmotorcycle
ĠHold
Ġpolar
Ġbureaucratic
ĠNeeds
Ġyourselves
Ġrigs
Edward
rop
Ġschools
ĠChile
ĠParkinson
ergic
expr
ĠContest
ĠCec
Wednesday
ĠDubai
Ġexplo
ole
Ġwithstand
Invest
ĠCrystal
Ġinteractions
MENT
ĠOCT
Ġarmoured
Ġdisliked
cor
Dat
Though
Ne
ĠSenators
police
Ġaccurate
Ġdistributions
Ġeng
ĠGre
ĠStory
ĠBever
Ġcockpit
generated
ĠLoft
Ġdocumentaries
Ġdemand
Ġmaterials
Ġtouched
rina
Ġtrendy
ĠSoviets
ĠStep
ĠBane
minent
EXP
mmmm
Ġcontradict
Ġintersection
Ġdeton
ixty
ĠSunny
Head
ĠRobinson
ĠGau
laughs
Ġreminders
Ġhomeowner
Ġfisherman
uca
ich
ĠCelebration
ĠAdministrative
sted
mental
Ġtrailers
ĠKerala
Ġcomparisons
Ġtan
ateurs
push
Previous
Ġdefined
ĠO
Ġ255
Dan
Ġclut
Ġpenn
inking
Ġaptly
ĠSTAND
Ġbomber
ĠSlug
ife
ĠWARNING
ĠFirefly
ongyang
ĠCanaver
ĠITV
Copyright
ĠArcher
ĠKY
ĠFN
'd
ĠBlaz
and
onic
Ġwars
strength
Ġswayed
Ġ90
Ġmakeshift
YR
tch
ĠPictures
ĠDollars
ĠBolshevik
Ġweight
Ġrevoke
ĠIgn
Ġspills
Ġsupplying
ĠManip
ĠOWN
ĠTool
Ġdeducted
ĠShooter
love
bots
Duration
ĠFisher
Ġyen
ĠDocuments
ogenous
ĠPvP
Ġestablished
Ġsubsection
ĠDerby
OHN
aler
956
GBT
riction
Ġlists
Ġheterogeneity
ider
Ġcoup
Ġinclination
Ġhamb
WOR
icho
wealth
ĠBasil
eton
ĠBruce
aking
ĠBetween
Ġgrocer
Ġ1900
fuck
Ġnostalg
Ġtempor
Ġancest
Ġresponded
ĠBos
ĠRedemption
ĠMighty
ĠMMO
Boot
utherford
Ġspectacular
Ġindust
James
Ġamplify
Ġvom
324
Ġtransmitted
esh
Ġcryptoc
Sunday
ĠBombay
lighting
Ġdevelopers
Ġadmire
Ġgaining
Ġwid
Ġstaff
789
Profile
Inst
Edited
ivariate
ĠLat
Ġresumed
assing
sama
bryce
Ġquaint
Ġascert
Ġdiversion
ĠThread
ĠAV
Sean
ĠDoodle
Ġtooltip
Ġlen
pool
ĠJu
enc
ĠDatabase
Ġ57
Ġmerit
Ġhilarious
Ġmistress
ĠFuel
Ġcapac
Ġstretches
Ġdiscouraging
Android
oise
Ġsat
Ġsharply
Ġconclusion
ero
ĠTos
ĠDip
Ġgreed
ENS
Europe
281
othy
blocking
Ġcalculations
Ġcities
Ġsolve
ibilities
Ġratings
aughed
Ġpacing
Ġbelievers
______
Ġharvested
ĠWad
ĠMil
Ġsorce
ĠSmartstocks
ĠlargeDownload
Ġbarley
ĠRiy
Ġarsenal
Ġ246
Ġsquadron
oms
Ġdefender
ĠRange
Ġpanic
Ġindent
Ġmachinery
ĠCopyright
Ġmuster
intendo
ĠFrag
ĠNATO
Ġ74
Ġ235
sequently
563
Ell
Ġjargon
ĠFROM
ĠENG
Ġhesitate
ujah
ĠBern
ĠPolar
Ġpropel
enges
strap
Ġmem
Ġriots
Ġtick
native
ĠTRANS
iat
Ġfertile
Ġartic
affected
ĠSpace
ĠWaiting
Ġflip
Ġoutskirts
Ġkeep
ote
ĠWeight
ĠCAS
Ġverbally
Ġneurolog
ĠGifts
Offic
Ġprintln
ancer
Ġsprung
Ġideologies
Song
Ġgly
Experts
ĠHabit
Therefore
kees
ĠMcMahon
)-
ĠNEXT
rats
linger
overy
ĠByte
960
034
axis
Ġcustody
Ġwarrant
Ġeconomists
Ġseas
Ġscreenshot
443
Ġsalads
Ġdistraction
Ġpreacher
anges
Ġpercentage
ĠdÃ©
Ġbalances
Ġglow
ĠPublishing
taining
illed
Ġcoales
Ġnarrower
ĠNobel
Ġturbulence
Ġteams
ĠEmbassy
Ġdiverted
Rom
Ġweapon
ĠElves
Ġstories
674
purpose
ĠDise
ĠArtemis
vs
Ġfullest
acles
Ġtint
mb
toe
apses
Ġrein
Ġincrim
ĠJordan
Ġpol
ieth
Ġboxer
Ġsusceptible
ĠNether
--------------------------------
ĠHEL
Ġpurified
ĠVT
rongh
Ġlens
ĠAnger
ĠSuite
>.
ÂłÂłÂłÂłÂłÂłÂłÂł
Ġscrap
AppData
ĠRetro
ĠTor
Ġsmiled
ĠLocation
ĠAppeals
Ġexperimenting
Ġegregious
Ġcaravan
ãĥł
ĠBuzzFeed
ĠUlt
Ġinterrupt
ĠRomance
Ġmust
Ġlabs
ĠSweeney
Ġvaccinated
Ġinhibit
ĠJenna
ĠSlay
Ġscratch
ĠTheir
Ġdisclosures
MAT
Ġprofessional
Ġdefendant
ĠER
ĠSI
Ġglaring
.),
Ġvideot
ĠRaspberry
Ġrite
gp
Ġsmall
culosis
PATH
ĠHawkins
Ġsequence
çļ
ĠMint
AF
Ġqualities
Ġtotalitarian
Ted
Ġimposition
ĠTulsa
ĠMoonlight
akery
Ġloud
Ġsneakers
ĠPotter
Op
ĠKemp
Â®
Ġoptimize
ĠTA
eros
ĠGators
ĠTeachers
Ġdifferentiate
ĠMerry
venge
porate
ĠCourage
ĠMaiden
iron
ffer
ilus
ouse
Ġconcepts
Ġlaptops
picture
Todd
mite
Ġ9000
Ġidentify
Ġappropriation
Ġboots
Ġnarrated
Ġentropy
Ġrodents
ĠCodex
Ġmiscon
Ġâī¤
Ġfork
ĠNeb
Ġ296
ĠHere
Bron
SF
ĠAnt
ĠGong
als
°
Ġconcession
abl
ĠStack
Ġhone
Ġliter
imony
Ġassured
Ġintellectuals
ĠPowerPoint
083
ixels
-,
juven
ascar
ĠShinra
Ġfee
Ġbindings
innamon
ÃŃs
athan
Besides
Ġcottage
Ġregrets
901
ste
Ġrevival
Ġdistinctive
East
DOWN
Ġinspires
ĠBS
Ġceases
Ġformer
Directory
aco
ĠPiano
Ġbeetles
Ġmuseums
ENN
Ġscanners
Ġposition
Ġposters
atche
Ġbere
Conn
joined
Ta
Ġundefeated
ĠBlackburn
Ġdizz
ĠAlly
lan
Ġ2019
ern
raud
Ġlegalized
ĠInstrument
Ġhypothetical
Ent
Ġbriefs
nl
Ġlineage
ĠScher
ĠBere
Ġ[+
é¾įåĸļå£«
aganda
2014
Ġcopied
iosyn
ellery
Ġprospect
Bra
Ġdebilitating
REM
ĠAch
Franc
daily
Ġind
Ġremedy
kai
ĠEuropeans
Ġmirror
MX
ĠRIGHT
Ġdaughter
ĠJulia
ĠMeat
ĠEmir
Ġstorage
Ġepit
authent
ikhail
ASC
Ġneut
556
ĠLake
Ġactivated
online
Ġsocietal
ĠMurder
parents
ĠBrands
ĠAbedin
NI
Ġcumulative
Ġholds
Ġchewing
ĠRepublican
Ġattempt
Ġrewarding
Ġdaunting
wrote
ĠLength
OM
Ġprincess
Ġmur
ĠGN
Ġunregulated
ĠChang
Ġswat
Ġplainly
River
ĠMarxism
archives
etsk
Ġunbel
ĠDwarf
upuncture
Ġnost
################
ĠCaucas
umably
ĠHydro
addon
ĠAttributes
Band
Ġendangered
ĠDangerous
Ġcombust
gif
ĠTheNitrome
Sal
Ġpedals
ĠKad
Press
ĠAFP
Ġproduced
hall
ĠLar
ried
Ġeasing
Ġhoax
ĠMalta
ĠGould
Ġhrs
ĠReid
Ġhelper
ĠRequires
Ġatmosphere
Option
Ġfrivol
Ġtarg
ĠCelt
Ġredundancy
ĠFisheries
Ġnond
ĠEz
Ġforfeiture
Ġchemical
ĠNarendra
Ġbeard
Ġsweaty
];
Ġ<+
avi
ĠSue
Ġexplan
Ġcages
Ġcynicism
Ã¢
Ġwage
Ġexponent
Brother
inals
olutely
ĠIly
Ġopin
ettel
Ġdocumenting
Ġcautious
Ġrelation
ĠCarly
enty
Ġincap
Ġexpenses
Ġ173
ħĭ
Ġpub
ĠQi
ĠAlaska
ĠCaption
1969
Ġimaginable
Ġdonkey
ĠHoll
/#
Ġcoach
ĠSch
Ġvivid
Ġadvent
Ġportrayal
CN
atters
Ġmurderers
ĠNotably
ĠRestaur
WA
ĠFresno
ĠHair
Ġcrem
Ġdelta
ĠProxy
ulate
hent
rowing
Ġpull
Ġbinary
ventional
ipe
Machine
Ġrattled
Ġmonetary
ĠFill
Ġthere
Ġcoached
ken
braska
Ġsucc
yson
olitics
Ġsupremacists
Ġviewpoints
ĠEarth
ĠZika
ĠHD
ĠError
FIX
ãĤª
Ġinstallments
çīĪ
ĠEmail
ĠScore
Ġelectrodes
ĠHills
ĠHew
Ġresistance
XX
ĠIon
agers
Ġmosa
Ġprofits
ĠCache
Children
"]
ĠAid
ĠMississ
Ġbicy
Ġenormous
Ġmembr
itles
Ġfrequencies
ĠScholars
ĠAssange
Ġsch
Ġvoters
Ġspores
vt
Ġcontempor
Lean
Ġpretty
Ġhavoc
BILITY
Ġchops
Ġpreventive
Ġsubmissions
ĠChip
Ġpinned
Ġhovering
ufact
ĠNXT
surface
ĠRandy
Ġchapters
Ġdiscl
ĠDoctors
Ġbon
Body
NSA
Dir
iet
Ġprohibition
category
Ġappell
ĠSalem
this
Ġbrain
Ġbanned
Ġdictatorship
ĠReprodu
ilic
Ġacquisitions
Ġhorizon
Ġpalm
ĠIndonesia
Ġacclaimed
Reporting
Ġwedding
Ġspouses
Ġcreations
807
African
Ġstock
rene
Ġknocking
give
Ġseaf
campaign
zb
agic
341
andum
Sexual
Ġcornerback
ĠMoh
Ġoutlook
hetic
Ġplayback
Ġanalyze
Ġpowd
Ġchemicals
ump
ĠHamilton
cedes
ifully
ĠChapters
ĠCoun
Ġfascination
Ġreproduce
charging
ys
stein
Ġcrypto
gorith
ĠHos
ĠStrongh
Ġlanding
ĠStudents
ĠReally
VIEW
Ġshould
Ġmine
Ġspreading
Ġsandwich
arro
orable
Ġranged
acet
Ġrearr
Ġyea
Doc
Italian
ĠSheriff
Ġexecuted
ĠHut
Ġsacrific
Mir
Ġinto
Ġperfume
Ġexpands
verting
Ġvictories
Ġknew
ĠChris
Ġpublishers
Ġhackers
flows
Ġstip
Ġexceptionally
ĠTanz
Hyper
izophren
lers
Ġhtml
ĠLur
Ġcapitalist
ische
Ġfet
izer
Ġarom
Ġcritic
Ġreligiously
ased
Ġembarked
combat
ĠIND
umen
ĠLTE
ĠCities
Ġexclus
Ġhindered
ĠeSports
ocumented
Given
anism
Ġjournal
ĠMB
Ġmotto
ĠStockholm
orian
etta
Ġ'
bite
ĠSere
Ġtripled
Ġpublish
Ġsam
Photo
model
inem
ĠBalance
!!!
609
Ġstitching
Ġrobe
ĠIQ
Â¶
omal
Ġmit
ample
Ġunderstandable
ohn
Ġdistances
Ġgirl
ĠPresidential
198
ĠBattle
Ġ72
Ġdumping
ĠCalder
ĠPunk
Ġdonating
TL
ĠMahmoud
Ġtropes
Disc
Ġreport
Ġbarbaric
ĠMySQL
Ġ283
ĠJohn
Ġinsults
ĠLM
ĠSlot
akura
akings
Ġint
Ġunsigned
Ġtumultuous
ĠFear
ply
Byte
Ġconducts
Ġlevy
sing
ĠStoke
########
Ġsets
Ġattract
Ġaside
borne
Ġ308
rog
Ġboosts
Ġusability
weights
ĠProfessor
Ġune
ips
ĠLed
Ġelephant
ĠBurg
automatic
Ġmatured
Ber
Fs
ĠKy
Ġatomic
ili
Ġfleeting
ĠUC
rued
fram
Ġproductions
ku
Ġunob
ĠMbps
Ġspont
nels
Ġcompuls
ĠChristie
Ġopener
Cmd
ĵ
On
Ġscor
Ġreformed
Ġthoroughly
Ġmarriages
airy
Ġdam
Ġdisadvantage
Ġmillennia
actory
IO
Ġturtles
ĠResident
ramid
rehend
ĠGreen
Ġmachines
rain
Ġnodded
ĠShakespeare
ĠGreatest
Nearly
Rose
as
:{
sample
ÃĥÃĤÃĥÃĤ
Ġmodern
hews
433
achel
rons
aunt
politics
ATCH
ĠShelby
Net
view
jpg
ĠFerry
ogh
Ġtease
Ġobscured
oglobin
Ġservers
fficient
ãĤ¼ãĤ¦ãĤ¹
Proof
ĠSneak
ĠBe
ĠClaudia
+=
Ġpayload
ĠWu
Ġstrife
ĠBrun
IFF
angible
Sl
ĠEarthqu
Ġproficiency
Ġgy
Ġdesktop
ĠLav
Ġswitched
ĠMueller
Ġlobby
ĠCapt
ĠScores
Ġagreeing
ĠJudith
Ġautomate
ĠGates
blocks
Ġtheory
Ġgoing
Ġ220
Ġdiligent
ĠStones
??
Ġpatrolling
Ġadherence
Ġhappier
ĠBurlington
Ġmarg
ĠBLM
ĠMourinho
Ġbeams
Ġhorribly
diagn
ĠPortable
tower
Ġimperative
orney
ĠCrimes
annabin
ÏĢ
Ġcorners
reshold
Ġmodelling
ĠMik
ĠExcel
asm
ĠConstant
Ġnegligence
Ġcreate
ĠZ
ipop
Ġdram
ĠHulk
mbol
ĠJade
cats
Ġ2009
ĠBMI
Ġdisconnected
ĠBrunswick
ogl
ĠProcedure
iop
ĠGot
Ġbranching
itsu
Ġrail
ammu
Ġ1937
Ġregulates
rington
Ġcocaine
ĠShea
Ġstew
coni
init
squ
Ġreverse
ĠSudan
Account
ĠGardner
Ġcoin
Ġallows
ĠXP
197
Ġhex
ĠCommission
Ġsid
Wed
ooks
whe
Ġdrains
Ġsidel
Ġemanc
Ġresignation
Ġromantic
Ġimmigration
ATTLE
Ġcontaminated
Ġpublishing
verbs
ĠVICE
Ġobjectionable
opard
ographically
Delete
Ġsacrament
yk
here
Ġtram
Ġsteril
Ġqualifiers
Ġmasterpiece
Gl
ĠNYT
($
ĠAD
ĠTat
ĠBirds
ĠByron
uko
ĠFathers
ĠGazette
ez
given
ĠAuthent
ĠSAY
Ġexpl
Easy
ĠAnthropology
ĠVery
Ġbudgets
rect
Ġbatter
court
Ġconjunction
Ġdoom
Ġneurons
Call
ĠKING
Ġnib
Wing
Yep
ĠSelf
Ġcultural
ISON
Ġcomplicate
Already
ĠDing
ructose
ĠAtk
\\\\\\\\\\\\\\\\
catentry
Mess
ĠPhotograph
Ġpublished
ĠPradesh
Ġglyph
onis
Ý
ï¿½ï¿½
Optional
Ġended
?????-?????-
ran
zed
Ġperfectly
ĠJosh
Ġdisappointing
Ġadmission
kamp
ĠRoss
ĠOpportun
Ġinfused
Ġof
ĠMeans
ĠGOOD
Ġpotassium
jab
Ġmantra
ograp
ieving
ĠOy
tal
Ġio
×Ļ
Â¯Â¯Â¯Â¯Â¯Â¯Â¯Â¯Â¯Â¯Â¯Â¯Â¯Â¯Â¯Â¯
12
Ġ1952
Ġbolstered
Who
ĠPriest
ĠKatherine
Ġ1921
Ġo
ONEY
Ġ302
ending
ĠCubs
Ġcomprehend
Ġmars
ĠQuadro
Ġairplane
ĠMason
ĠRide
508
Ġ1440
Ġinstit
agogue
awi
Ġconstituency
omon
Ġcompilation
ĠIA
Ġresurrected
ĠLyon
UGE
ĠGulf
ĠSpell
Ġschema
Ġactivist
¬¼
Com
Ġpopulate
ĠAVG
pheus
raz
Ġillustrated
Damn
untled
Ġdece
ĠDE
Ġmeaningful
irit
Player
Ġmessaging
ĠOffense
Ġobsolete
xiety
outside
Ġoppression
Ġrestruct
opens
Ġcursor
ĠHem
might
berra
Ġcoats
Abstract
Ġpenetrated
Ġantip
BuyableInstoreAndOnline
Ġremain
Ġcurator
Ġblasting
ĠBLACK
Ġunique
aptop
AND
Ġinhibitors
DVD
Ġcreek
ĠMA
)",
Ġdepartures
Ġskinny
Ġspaghetti
reon
wit
%).
Ġalumni
Ġepisode
ĠNeural
ĠLoki
Ġcustomer
ĠMasters
ought
grade
Ġprank
Ġhaircut
Rating
Ġequity
Ġcoaching
Ġfurnace
Diamond
Ġ218
eur
Ġpricey
481
ceed
ĠTerr
istically
iece
Ġinstructor
ics
Ġhabitat
Ġcombatants
ĠKane
Ġdetective
Ġgam
ĠAttack
Ġbast
ĠOmn
Ġfolk
aez
Ġsings
ĠFlam
unicip
Anti
Ġalone
ĠBaker
Ġjoins
No
alties
cerpt
Transaction
pei
mi
Ġfortun
Ġmad
Ġweakest
disabled
ĠConsumption
Ġaveraging
ĠCourt
Ġ170
Ġpurpose
Ġgroups
Ġwildfires
Ġinformant
VEL
Ġsubmit
olding
Ġlash
Ġcomet
doi
Ġtrustworthy
Bomb
ĠTYPE
Ġtherapists
abwe
é¾
ĠSQU
ĠAutom
Ġindicate
ĥ
Ġcommentary
Ġearned
Ġloaded
ona
Ġlightly
Ġeffic
247
Ġvoiced
mitting
Ġtemple
idas
ĠEnder
User
ilan
querque
Ġlif
ĠGad
ĠBald
Slow
Ġreadings
prise
hyp
Ġnervous
Ġcarpet
reck
Ġgull
ĠEval
ĠHTTP
ifications
Ġcoral
ĠExplorer
Ġcombine
ĠShogun
improve
ĠHatt
Weapons
ĻĤ
Bug
ĠIts
Ġbased
ĠRecap
Squ
ĠTerritory
ĠWindows
ĠPred
Ġmaximize
ĠFOX
legram
ĠCOUN
Tang
NOTE
ĠProto
Ġgenre
Ġextract
ĠAir
ĠEMS
ĠBrooklyn
Ġboasted
ALK
ĠPresbyterian
Ġmeats
Ġsunlight
ĠREG
ldom
old
orts
ĠWoods
Special
Ops
Ġattm
662
ĠCONTR
Ġwill
Ġgirls
ĠSummit
Ġargue
Ġsearched
Ġartwork
lab
offensive
689
ĠRiver
ering
Ġbehaviors
ĠCombined
Ġmechanical
Ġherbs
aten
Ġguest
Ġbleach
Ġcenturies
Ġoptimum
Ġsediment
Ġproxies
Ġdeeper
ĠKurds
Ġpale
ĠWT
ĠDownload
ĠRules
Ġmicrobiota
ĠKhalid
ĠWick
Ġtrades
India
Ġfragmented
Ġner
ĠTrigger
Ġincapac
Cal
Ġcircumference
\\
ĠJacob
Ġmindfulness
ĠSophie
Ġ375
ĠUl
Mp
Ġfantas
Ġdispose
Si
Ġshock
ĠJews
Bet
Ġflats
Ġscra
PET
second
Ġbust
Ġtaxation
Ġscientists
Ġcloth
Find
Ġ432
Ġloves
anes
Ġconfirm
WHERE
slot
Ġinspector
Ġpermit
ĠMarried
command
Ġsoon
Ġspecimens
cost
ĠUnix
Ġ87
tree
Ġproperly
Ġvendors
Ġoverride
nit
FUL
vol
ISTORY
ĠNOW
Ò
ĠManuel
Ġreigning
Ġrecipients
ĠIndependence
Ġrestricting
Ġunavailable
Ġlamented
Ġfloods
Ġlured
Ġoutline
ĠNations
Ġcreativity
Ġturbulent
ice
Ġat
Ġdefeated
ĠCzech
ĠPage
Ġwarfare
ifier
Ġcruiser
Ġexplanation
ĠMaduro
Ġ178
Â£
ĠGreenberg
Ġheater
Ġnation
Ġtrespass
etition
oslav
ĠObesity
ĠChill
ordon
Ġmaniac
Ġkinderg
Ġobfusc
Ġrationality
Question
Primary
romancer
ĠÃī
aths
ĠPinterest
Ġevac
atern
Crypt
ĠSUN
Ġassailants
ĠMesh
Ġ______
ologically
ĠDustin
ake
ĠNicotine
ĠTesting
Ġmoth
Ġ61
Ġeleg
Å«
usters
Ġfilibuster
Ġbooklet
white
ivity
Ġvol
Ġtroopers
Ġexcessive
Ġpredicts
Ġpixels
Ġceramic
xia
Standard
ocado
Ġteachers
Ġsatisfaction
Ġwhining
Ġcrore
Ġ1965
ĠAst
ĠRahul
kowski
Ġdisrupt
Key
cussion
rics
Ġcriticize
Reg
Ġstripping
ĠActual
rub
dash
ĠSlaughter
Ġatheist
Ġwebs
ĠKhe
Ġinning
Ġdome
1968
rella
ĠFriday
Ġcatalogue
ĠFacts
ĠHath
Better
Ġkeys
Screenshot
Ġvisual
ademic
ĠVega
Shield
Poll
Ġweld
Ġtranslation
Ġmasculinity
Ġconvictions
energy
Ġstayed
Ġpoverty
Ġtheoretical
Ġcounselor
303
iuses
Ġangrily
Ġnotions
Ġadvertised
670
imsy
Figure
Ġwretched
Ġlong
ĠSPACE
Ġcommentators
ĠRegions
wow
Ġarise
ĠSeraph
ixture
Setting
Ġbreakup
Ġfishing
Ġabusers
Ġcoinc
Ġrel
aria
O
Ġsituational
Pocket
cientious
îĢ
ĠBarcl
Ġsegregated
Ġausterity
ĠAA
ĠðŁĺ
ĠBones
arantine
Ġquar
raphics
ĠPhilips
Ġradial
Instant
qqa
vironment
OPLE
ritic
Ġspeech
itous
Ġ``
igi
Ġcommenced
Ġinfiltration
.}
Ġerratic
alph
ĠComedy
ranean
Ġaffidavit
Ġbreakfast
ĠChanging
ĠBJ
Ġsometime
Style
Ġlifelong
Ware
opia
BU
Ġbedrooms
adan
ĠShadows
Ġold
ĠFormer
Ġher
Ġcommissioner
ĠVista
Ġfreeway
Ġblade
Ġtopple
BOOK
Ġvigorous
ĠRossi
Ġthankfully
ĠWast
pur
remlin
Ġoriginals
Past
ĠRates
ëĭ
Ġflourish
Ġgoals
Ġinstability
useum
ĠMaster
ANN
Ġcla
Ġsufficiently
Ĥ¬
colonial
Init
???
Ġstalk
wallet
Ġgained
apult
eks
ĠRoberts
abal
span
CLOSE
Ġrevis
rique
Ġfurnish
Ġcredential
Ġdoor
ĠGet
olid
machine
ĠAuthorization
Ġcongr
Ġquicker
Ġnearest
Î»
og
ducers
Ġdu
OD
ĠJenny
Ġcell
ual
ĠOperation
Ġechoed
Ġcharitable
Ġdeeply
Ġhomepage
aws
rones
Ġremove
Ġ1917
EMBER
Ġundeniable
ierra
omedical
possibly
Ġannihilation
ĠCra
Nature
ĠRx
Syn
LIB
Ġatom
ĠFixes
Government
ĠBomb
ĠMeadows
Ġobstruction
enny
Ġlogged
acre
ĠSao
ĠVeterinary
ĠPenal
ĠGrow
sam
ĠActivision
Ġdisappearance
ĠCivic
ĠMood
ĠRelative
Ġintends
Nothing
enabled
ĠMild
ĠConcert
gel
Ġmelody
issued
ĠTransaction
Ġclin
dat
ĠBare
Ġinfringing
ĠDarrell
Ġbehaves
acteria
ĠPsycho
ination
ĠRI
Ġverte
Ġpharmac
cook
Ġobsessive
Ġworthless
ĠJenkins
ĠPeace
Ġdiscussion
Ġab
Ġtopics
Ġadjusted
ĠProf
Ġswiftly
Ġsolicitor
Ġske
ĠLovely
Ġutmost
ĠFair
odes
ĠMJ
mma
ĠEmpire
Ġunknown
Ġsisters
Ġstarring
Ġoccup
Site
ĠFnatic
Ġhide
Ġswore
rete
Ġrebellious
Craft
Ġlie
ases
Ġrehe
Ġshader
Michael
anas
Ġmenu
ĠDomain
Ġadvance
peror
minimum
ctive
Ġorc
Ġinitialization
Continue
ĠStorage
ï
ĠTHESE
Override
Ġsig
ĠALP
Ġovershadowed
Ġwaterfall
ĠRoundup
ĠWorth
ĠRodham
Ġswath
Ġreviews
Ġasbestos
Ġimperson
ĠAnn
ISM
Ġinver
ĠEye
Change
notice
utes
enzie
Ġantibody
path
Ġsorted
Ġconfer
htaking
ena
Ġherself
Ġhacking
Ġavalanche
Ġauthentic
ĠTig
ĠBrigade
Ġstagnation
ĠFrame
Ġtypew
ãĥİ
Ġparams
ĠCuomo
astical
unks
Minor
60
Rated
Ġunresolved
ĠTo
eat
ĠPiece
Ġsmug
ĠReach
Ġblood
shell
Ġanecdote
Ġwitness
Ġcoc
Ġopenly
Ġice
Ġpumped
zero
ĠZimmer
ĠGaddafi
ardo
Ġ52
Ġdash
Ġseeds
Ġbelong
ĠMash
Ġrenters
Ġthirteen
hash
haus
ĠAlbuquerque
stall
~
Ġpoor
tta
Ġshenanigans
nder
,,
ĠDeploy
Ġaest
akening
Ġprovided
Ġcontentious
Ġwildlife
Ġanonymity
binding
Sanders
pie
furt
ĠElvis
Ġassum
Ġagents
ĠÂ§Â§
Ġextinction
Ġsank
ĠPatel
ĠDEL
Ġgeometry
aney
Runtime
ĠEllen
Hillary
wrapper
ORE
Ġbred
Ġreservations
ĠConcept
ĠLaboratories
Ġbrewers
Ġtermin
ĠButcher
ĠDek
Ġregions
Ġduties
Ġtoughest
Ġright
Ġconstit
ĠLew
ĠØ
ĠChen
ĠLives
Ġlesson
Ġguards
Ġalleg
Ġderives
Val
Ġpointers
Extreme
Ġforeigners
Jew
orrect
HAHAHAHA
Ġstacks
Anth
Ġengaging
NAME
Ġcentury
Ġbanning
ĠMonroe
Ġvolume
ource
Ġseq
or
Ġthrown
Ġhop
Ġprivat
Ġdenounced
Ġknob
ĠREL
Even
Ġerect
Ġindistinguishable
ĠVegan
RL
calling
KING
Enc
Background
etr
Ġtimed
appro
ĠMany
ĠKaufman
mc
Ġunforeseen
ĠLot
Ġmethyl
ĠSalman
sit
Shin
ĠInstr
anchez
ĠControl
Ġcondemns
Ġfractions
Ġwording
Ġemergency
yang
ld
Ġdiesel
ĠHasan
Ġinh
Ġonlook
Ġbends
lights
perty
hots
WASHINGTON
Ġslip
32
Ġsymbolic
Ġvocal
CON
ĠHert
Ġdismantle
antes
ĠPatri
ĠBrand
Ġimplied
ĠEquality
Ġdiscs
ĠRev
ĠClip
Ġwaited
ĠFlake
ulnerability
ĠCh
Ġpen
Ġtu
Ġsequential
vo
Ġchannel
Stew
Ġcancell
992
Ġadmirable
Ġexecute
ĠAcad
Ġramp
Ġspit
ĠLINK
eus
ocaust
lio
Ġunearthed
ĠJag
Yan
Ġ304
Ġinterpreter
ĠAm
pecting
Ġcontain
ĠGlow
uring
hyde
ĠTemplate
Ġflower
ificial
Ġregister
Ġpulp
ĠAven
Ġpitcher
ĠExpend
ĠGoku
Ġsuicidal
50
irens
Ġloophole
cern
ARY
Ġeaves
Ġstole
Ġprev
Ġprinting
Ġrespectable
Ġlistening
ĠFunction
ĠAns
Ġhorse
sever
ĠHolt
Ġinfluenced
Ġreproductive
ĠLung
Ġ1903
Ġsurged
eties
Ġfeat
Ġfound
oh
ĠSabha
Ġtits
ĠVladimir
ĠYOUR
Ġillum
ĠDemocratic
ĠVec
ĠShooting
ĠLod
ĠWim
Ġbonds
SG
MH
for
Ġproc
ĠTest
Ġinfect
ĠUtilities
Ġomin
ĠTurtles
Ġtim
Ġdi
ĠGodzilla
ĠâĸĪ
BB
ĠSync
References
ĠAnalyst
omers
ĠTorment
Ġ--------------------
Ġintervals
Spread
ĠNAFTA
Mart
Ġfactual
ĠOL
ĠFG
ĠAuction
Ġintimacy
ĠMitchell
ĠSherlock
Ġlevers
limits
Ġchromos
Ġwaivers
Ġrenaissance
Ġleased
Ġdirty
Ġoperate
ĠPowerShell
Iterator
Ġ1908
flix
aru
ĠDigital
304
ĠFINAL
range
å¿
Ġportions
Ġcruel
Ġresp
ĠChildhood
ĠProspect
âĢ¦"
Ġgrabbing
Ġlions
ĠFeather
asion
Ġserving
isions
Ġwatershed
233
Ġpopulism
Ġevaluations
ricting
Ġ1913
Ġfungi
Ġfelon
ĠDys
umeric
Ġveget
Ġdeprivation
QUEST
directed
yard
Ġchecklist
notation
Ġscanner
ĠRollins
ĠCanberra
ĠConsumers
Ġgolf
NJ
ĠIslamist
ĠSara
Ġfou
ICES
Ġopacity
Ġtd
ãĥĥãĥī
vention
Ġtakeoff
Ġbecome
Ġperformance
ĠTV
Ġflow
Ġunidentified
indu
Ġexception
ĠAJ
manager
Ġmassacres
Ġcoincided
nec
andre
ĠRom
Ġflavour
ĠFever
How
omm
Coin
Ġnurses
ĠFT
pleting
Ġdise
Ġlegacy
espie
0200
Ġrobbery
Ġdissu
raped
Ġtighten
Attorney
Ġdetect
Ġ137
Ġbombers
Ġwithholding
Ġaudits
Ġapproving
Ġirrational
ĠNEVER
Ġlousy
bing
agons
Ġinspectors
ĠNEW
mitter
Ġentails
abba
seat
ĠExpl
Ġconsequential
Internet
MAC
Magn
Ġdisruptions
stitial
Ġlifting
Ġsugar
Ġcompulsion
ĠSound
Ġplacebo
Volume
ĠEnhancement
development
ĠDeep
011
Questions
Marc
Ġinconsistency
ĠForces
Ġmashed
Ġinterpreting
Ġdiscovered
ĠKeys
ADA
becca
Ġfeedback
Search
Ġdesigner
Ġmillennial
HF
Ġcliffs
Ġmonk
Ġmindless
Ġtwists
Ġsanitation
Vector
ocus
ĠFlore
aryn
ĠRelief
ĠNing
Ġobey
Changed
Ġconvert
Ġchatter
iens
ancy
ow
enter
ĠThunder
Ġride
Ġmol
ĠProb
ĠBethlehem
Ġsuffering
Ġperspectives
ĠDrawing
427
Ġwithhold
Ġcentrif
Ġdup
Ġcasually
Military
interrupted
ĠSeventh
Ġpress
choes
Ġcolorful
Ġwipe
Ġpept
ĠBeaver
Ġsocioeconomic
ĠBeta
Ġworms
notes
ĠAlvin
Need
ĠPav
Alert
ĠPakistan
ĠSky
ĠCay
Ġmerchandise
ĠKrish
Ġ^
Ġlapt
Ġjuven
Ġver
Ġaccomplishment
ĠBans
arming
blank
ĠSmooth
Ġbush
Ġscripts
Ġpsycho
wait
Story
Ġunavoid
XP
Ġmansion
ĠComposite
ĠRolls
omorph
Ġincident
ĠSidney
ĠReaction
ĠAssistant
Ġchampions
Ġintimidated
Ġsignal
Ġparody
artisan
ĠIncarn
addr
Ġbarrage
correct
Ġhim
Ġgeopolitical
ÙĦ
ĠGem
Ġrabbit
Ġprolong
ryan
ooky
ĠEnix
Ġscheme
xp
Ġinjustice
Ġunreliable
ĠPhoenix
ĠSpecifications
Ġ${
Ġsymbols
ĠWinter
Ġanimated
Ġgraz
Ġterrit
Configuration
Ġbuzzing
Ġcust
Ġcommunion
ĠShard
bt
Ġaway
Ġdisclaim
Ġwrestling
rather
Ġimminent
Ġunsu
append
oys
confidence
Ġpackage
Ġ>>
Ġresolved
Ġgrossly
586
ille
ĠSnow
477
Ġaur
ĠGon
Ġtransmitter
utical
Ġzoning
Ġlaunched
Ġstockp
Ġaided
Ġpositives
361
Ġwi
Ġformidable
Ġpled
ĠArchive
Ġarche
ĠNear
ĠCannot
ashed
ampunk
children
ĠMechan
ĠTrudeau
ESCO
ijn
ĠRequ
Ġshatter
Ġenglish
aunders
valued
nea
Ġ211
PAC
utor
ĠInto
Ġprosec
orp
hawks
Ġproceeds
Ġseaw
Ġnorth
asms
180
Ġhorns
Liber
âĢĵâĢĵ
ĠCorey
Ġagenda
Ġwitnesses
arty
Ġimmersive
Ġascended
Ġect
Ġcurry
irect
etc
Ġcongratulate
eston
ucc
Ġjewels
Ġ291
fect
ĠDowning
Ġoy
repeat
Ġroller
ĠVoices
ĠQuan
Ġlvl
ĠSummon
ĠSent
Ġelusive
ela
Ġhikers
seq
Ġpicks
Ġding
iably
Park
Ġstudios
Interested
Ġtranscripts
Ġawake
Ġover
ucci
.).
ĠCascade
amac
ĠByz
æµ
dj
ĠIndiana
Ġbashing
Ä±
aeus
ICAN
Ġluckily
Ġrejects
Project
Ġglacier
Ġleague
Ġnoted
ĠPOP
Enjoy
Ġcertainty
ĠLogic
ĠCLA
styles
Tenn
\",
ĠRodney
oneliness
bernatorial
Ġthing
Ġbrave
ĠEuropean
Ġban
ĠIw
Ġcoastline
ĠFavorite
ĠNoel
Ġsubstant
Ġfly
ĠBack
Ġrune
ĠFiscal
ĠPolice
Saturday
ĠSah
ĠNP
llan
Ġpineapple
Ġmoral
Ġhijab
Ġenable
775
ĠLeading
Ġmanip
ribution
Ġenslaved
Ġinferred
Ġstricter
Quality
Texture
entially
Ġcontaminants
ĠMIA
Ġgobl
administ
Ġsynaptic
n
Ġfunction
Ġcancelled
Ġportable
Dial
danger
ãģ£
Ġ();
Section
ĠArk
âĨ
755
Ġsneaking
Ġchampagne
ĠCop
db
Ġultimately
Ġconverting
ĠGoddess
ĠTHE
Ġverified
mand
ant
Ġportrayed
Ġmanipulate
Ġsolid
Ġeyeb
Ġsmokes
uth
oning
ĠEmerald
Ġflashy
bags
ĠSplash
Ġzeal
Ġrabbits
athe
Ġprophe
={
Ġgrief
Ġembryos
Ġ192
Ġprominence
Ġpier
ĠS
Ġsample
Ġwritten
Ġcoli
Ġlearning
Ġhair
Ġconfessed
Ġtow
vant
ĠRan
Sep
mentation
Ġtourism
Ġconvergence
ĠISP
Ġspectral
Ġtherapeutic
ĠBras
Lev
ĠProcessor
Disk
Īè
sc
95
ĠGrade
Ġlarger
ĠChargers
economic
ĠNRA
Ġassets
Ġimmunity
sol
Ger
ĠRou
Br
Ġdestro
Met
ĠChomsky
ĠGoblin
rom
ĠEnds
Ġworsened
u
ĠLever
Repe
ĠFault
ĠChildren
gg
ĠTheft
Ġestablishment
Ġnem
Ġlangu
ĠKappa
Ġthrow
Ġunable
uates
Ġconsiderably
ĠTeacher
ĠMd
Ġol
Ġhumorous
ans
Ġpract
Ġlistens
ç¥ŀ
Ġsear
Ġdubious
k
ĠLogged
chance
ĠBah
ĠEminem
Ġsomew
constitutional
Ġfeeds
ĠDjango
Hub
Ġunemploy
Ġframework
ãĥ³
HC
Ġregist
vine
Ġshaken
ĠLEDs
Ġsore
ĠPoles
mission
meal
herent
Ġvideog
ĠClaims
ALTH
pin
Ġhallway
Ð¸
phase
Ġrespond
ĠMcM
Ġunfortunately
Ġ133
Ġprincipals
ĠExperimental
ĠScriptures
ĠIdlib
Ġappropriately
Un
Ġchoice
ĠDown
ĠRoland
ĠREM
Nob
ĠRecipes
ĠBuch
assembly
Ġappropri
Ġicons
ĠBrother
ĠUPDATE
Ġmatt
Ġvia
ĠOnce
ĠVAT
Ġmalnutrition
Ġrouted
Ġsubt
ĠLoading
Ġcurs
ĠSaudi
Calif
Ġobscene
iction
Leon
ĠProtestants
ĠOffice
Ġdifferences
ural
Ġfreeze
Ġglitch
ĠPolly
ĠConce
ĠCorrections
Ġimmune
INST
Ġwhine
ĠMek
ĠFont
Ġabhor
Ġreflex
onet
FactoryReloaded
Ġmanipulated
nv
Ġhotels
ĠLerner
Ġterminated
ãĤº
Ġparents
Ġfidelity
usting
stasy
obook
Ġchildhood
Ġdriver
Ġruling
ĠSid
owa
Ġchanting
ĠLe
Ġsculptures
ĠReconstruction
arently
anni
ĠIndex
ĠJet
Ġflag
Ġtags
ĠBeir
psych
ĠTreat
Ġsil
Ġministries
ĠGamergate
Ġstrikeouts
Ġonslaught
ĠPork
Ġinsulated
ubby
awareness
EFF
Ġgadgets
Ġoutfits
ĠAim
Ġelements
Ġwrist
rive
ĠRhythm
hedon
half
ns
Ġunilateral
Ġcompelling
Ġresusc
ago
Ġvind
Ġtrusted
Ġmultitude
proof
Ġsea
umenthal
Ġpitches
ravity
valid
Ġdrawn
usp
Ġnegate
1994
ĠFace
ĠMuslim
ĠHaf
Ġimplementing
Ġthinker
Ġponies
icht
380
Ġbuyer
ĠShe
Ġpedestrian
fare
Ġbetween
Ġmissing
Ġclaw
ĠRiot
Ġfibers
ĠAE
crow
Ġdigs
Ġ423
Magic
Â¯Â¯Â¯Â¯
Ġplight
ĠPreview
ĠDaytona
uf
Ġexplosions
Ġmerely
uddin
ĠSasha
682
Ġcontrol
service
ĠDion
Ġbureaucr
Ġinstincts
Ġsummon
WAR
Ġmetab
olog
Ġadversity
Ġcompletes
Ġlatter
Real
avoid
Ġhesitation
ĠTucker
too
Ġsurg
math
ĠRenault
mony
Pres
ILA
Ġperplex
ĠFiction
Ġmultiplied
Double
Behind
Bench
Beginning
ĠCurrency
Ġscient
Ã±o
Module
Ġscript
sen
Ġevaluated
Ġaged
Ġsensors
Ġfails
Ġprocess
ĠAvengers
Ġsqueezed
etter
Ġmodeled
yi
aterial
ĠRagnarok
×
Ġ55
ergy
environment
odcast
campus
ĠHG
potion
Ĥİ
za
Ġtriggered
ovi
Ġtroubles
Ġplead
Ġassigned
ados
ĠMonster
ĠFIN
iform
Ġelectorate
ĠChoose
Ġformation
Ġimmigrants
Ġprototypes
atisf
ĠClar
Ġmessing
mounted
vice
Ġdecon
ĠKham
Ġgun
804
Ġconve
nell
----
ĠSpring
Ġproductive
Ġ70
izen
ĠSebastian
Ġhash
ĠEthernet
aye
ĠActivate
Ġaccessory
December
Lua
Ġbook
Ġcommented
ĠMission
Ġrecruits
ĠSurprisingly
Flow
Ġcareg
ĠGr
VERTISEMENT
Ġfinishing
Ġinfluences
manufact
ĠLocke
ĠCed
Ġhairst
Height
Ġet
ĠRSA
ĠVin
Ġaccusations
Ġenlarge
Obama
Î½
ĠOnt
anyl
Ġstraight
âĢ¦âĢ¦
?'"
ĠMaya
ĠUrug
ĠBilly
iery
Ġdependent
Ġbad
ĠBuy
Ġfingertips
Ġterrestrial
ophone
Ġperformers
Ġsupplementary
sure
pler
Ġdis
Ġlicense
Running
ĠMandatory
ius
ĠTud
itters
ĠDMV
ĠLogan
Ġobedient
Ġblend
Ġtighter
Ġinvaders
Ġreferees
ĠBo
ĠSv
ophobic
ĠFather
Ġphysician
Ġlaureate
aea
ĠSom
ĠApocalypse
posure
Ġrelates
Ġignition
Ġaggravated
Ġpolite
Ġwip
Ġcav
ĠLearn
1001
grim
advert
Ġexpression
st
ĠRab
Ġgreen
Ġsubjective
Gar
ĠAsus
Ġtolerated
enting
ĠMEP
olini
Ġstigmat
Ġfactory
ĠCamel
ĠCharges
pred
Ġawfully
676
Ġundocumented
Ġnont
Ġcomprom
Depths
ĠUD
Ġmac
Ġstaffing
ivities
uttering
AUT
Buy
573
Ġthicker
claimer
Ġplanting
Ġdont
Ġfrustration
Ġantibodies
Ġstink
Ġcriminality
gypt
Ġtrivia
Ġwealthy
Ġtransforming
162
Anne
Ġref
wcs
ĠSolidGoldMagikarp
amus
erv
ĠLC
ĠJoh
gans
uitous
OFF
Ġusername
Ġtennis
ĠAvalanche
Ġaffirmed
ĠCannon
Ġsts
ĠMAX
ĠFUCK
Ġdocuments
Hope
ĠLex
load
inducing
ĠVoldemort
Publisher
Ġoptional
Ġdisrespect
Ġexcitement
ĠWelch
ĠKik
Ġlicensing
onica
izes
You
ĠTI
aline
Ġremed
rontal
71
Spring
ĠMicha
ä¸ī
amental
rade
ĠHayes
ĠDani
ĠWatts
Ġlasting
hens
Early
ĠCalais
anguard
Ġstems
Ġdisruptive
Ġpeanut
Ġballoons
Ġmarking
ĠSending
ĠColomb
ãĥĲ
Ġprint
Ġdeepen
Ġmetals
Ġideals
Finally
pperc
Ġrough
Ġalcohol
ĠHH
ĠWilson
ĠTurning
Ġstreets
raph
Ġemerged
groups
ĠCth
Ġprison
Ġaccompanied
asha
Ġdictated
Ġdisc
Ġvile
Ġtainted
Ġthat
ĠMuhammad
Ġeclips
Ġplanned
ĠBrow
RGB
ĠRegional
Ġshepherd
ĠTher
Ġms
ĠLaurie
Ġdefinitions
head
8
ĠDisney
stant
Ġsnack
Ġoffended
Ġvillage
make
Ġfriction
tri
Ġbuddy
ĠFare
405
ĠDemons
Hidden
localhost
0000000000000000
454
Ġquit
Ġcholesterol
Ġchallenge
prising
Ġmorbid
Ġencountered
Ġhighlighted
Ġcircumstances
Ġretirees
zar
893
Ġimpedance
Prom
ĠHearing
ĠLevi
ellow
Ġoverweight
Ġnpm
ĠSpot
||
iced
Ġweek
ugal
orem
acid
ĠBaltimore
rum
ĠFalk
Ġheed
Ġfaithfully
ĠCasting
Ġ1926
Ġconcerts
eter
ĠBomber
ĠNanto
Ġworkings
ĠWei
ĠSeymour
ĠChak
ecake
ĠLind
Ġboon
Ġcapitalists
WINDOWS
Ġparticipates
Ġtopic
ĠHannibal
largest
Ġnotified
Ġtextures
Ġknocks
ĠRank
Ġ---
Ġnewsp
Ġchat
Ġphysique
Ġ429
eki
Ġnil
ARD
ĠNewcastle
Ġinhabit
ĠJO
ĠHeal
Court
Ġplayed
dding
Ġsuperflu
priced
ĠMessenger
atten
Ġscreenshots
ĠScholarship
ĠIntelligent
Ġsew
tk
onson
idable
Appearances
Ġstop
Ġunpopular
ĠStevens
214
Ġresolving
ĠMAS
ĠLair
Ġfox
Ġbinding
Ġallegedly
ĠJi
inement
Ġreliability
Ġcooperative
Ġangles
ovies
Ġintelligent
EL
form
id
Ġkidney
Ġreduce
birds
Ġsolutions
enezuel
Ġtemporarily
ĠDrum
Ġdiapers
Ġsmiles
Ġ14
Ġexplores
ĠDimensions
ocytes
Ġintrinsic
less
ĠHelp
Ġtragically
uz
ardy
âĢİ
WHO
Ġpainted
ĠLCD
ornia
Ġwarn
ĠHindi
Ġdisrupting
Ġdimin
725
PK
ĠBlessed
ĠMaple
Ġambition
Orange
ĠDai
ĠÎ
Complete
Ġdragged
ĠScript
od
940
ĠExpect
ĠBride
Ġsheep
Code
åı
antom
Remove
ĠBreakfast
Ġpleas
Ġdevastation
ã
ĠBees
.''.
kov
Ġfiercely
ĠRio
Ġsuperhero
Ġbird
then
afi
een
Ġtwelve
ĠMulti
ĠTrout
ĠCPS
Ġinsignificant
ĠNato
ĠHighly
Ġrighteous
Ġneb
-.
ĠWales
Ġrender
Ġregulation
ĠAppalach
Ġbanging
Ġteenage
Ġprogrammes
Ġfacilitated
Ġstatistics
ĠIntro
Ġfloor
Sund
ĠVis
mosp
Location
Ġfoil
Ġexacerbated
Ġbehaved
Ġlocks
ĠOw
Ġdare
a
Ġcontainers
Ġpredecessors
ĠBoo
ĠParenthood
Ġquery
Ġpostal
Ġpreparing
ĠErit
Ġswallowed
ĠTransactions
ĠControlled
PR
ĠJaguars
security
ĠLOVE
ĠOriginal
nt
ĠMazda
Ġspecializing
digit
Ġsurrounding
Ġfooled
opened
ĠRemote
asonic
ĠTrayvon
aran
Ġwarrants
Ġenclosure
Ġfailings
files
ĠAnxiety
ving
ĠRussians
conf
Editor
Ġmeal
ĠDeath
Ġthose
Ġmuse
ĠKamp
urgy
ĠSERVICES
chest
Saharan
habi
Ġinvestigations
Ġsab
ĠAlv
Ġprodu
ĠCit
when
Stage
ĠDirectory
Ġpaved
Ġya
Ġentert
rx
Ġrevealed
ĠPaid
pora
Actor
ĠDoor
ĠCuban
gall
Ġpalp
ÃįÃį
Ġmodulation
Agg
Ġcoveted
Ġharassing
because
Ġagitation
verages
Ġsatell
what
ouncing
Theme
¡
Ġforgetting
Ġallev
çľ
ista
Ġmeas
ĠPure
itto
Ġpartition
Ġhypothesis
afort
ĠCanaan
kick
RFC
Snap
Ġidentifier
ĠExtension
Ġapplying
him
Ġvalves
Ġskipping
uder
éĢ
ringe
ĠTemper
Ġtruths
ĠLaun
Ġbell
Ġservant
Ġindex
ĠSystem
ĠFO
ilion
Ġlatch
wordpress
foreseen
Ġregress
Had
land
ĠFrederick
FE
Ġperceptions
Ġcircuits
videos
Ġlegislatures
Ġwallet
Ġcomplains
Ġfaulty
Ġlegislature
ĠAliens
Ġgone
Ġvirtues
bed
ĠSup
Ġmicrosc
ĠPu
aven
Ġgenerating
Ġindicates
istrates
Ġwartime
352
ĠYugoslavia
ĠPHI
ĠFAQ
heet
ĠVegas
ĠAlexander
ĠAnnex
Ġprovides
Ġresid
Class
Ġcomplement
Ġincarcerated
Ġannouncing
Ġshovel
Ġnorthwest
Ġniece
enable
ĠExplosive
Bi
Ġroomm
asia
uminati
Ġbillion
Ġfalls
ĠTalk
ths
bors
Ġpersuasion
ECK
Ġphotographs
Ġremind
ĠSharif
ĠNAV
ĠGawker
Ġcategories
Ġmindset
âĹ
Ġobser
Ãª
ĠDiet
ĠStore
ĠPasadena
Ġwolves
Ġcountdown
ĠWen
citizens
Ġarises
Ġpeg
ĠQual
ĠFiber
Match
Ġ(-
ository
Ġmaybe
ĠOrganization
Ġcellphone
Ġter
Ġvibrations
ĠAbsolute
Ġdescendant
Ġwhispered
iPhone
osuke
ĠJohnny
ap
erved
ĠLife
Ġsergeant
Ġ171
Ġcarcin
Ġswitch
Ġcountless
education
Ġfascists
Ġopted
Contin
ĠIslamists
ĠPriebus
Ġmentions
aturation
ĠConnecticut
onga
Ġwolf
Ġsubst
Ġremaining
Ġalter
ĠBord
erala
Ġchiefly
chieve
AV
Ġeyes
Ġcasc
ĠPython
neapolis
Ġfrontier
One
Ġdepending
Up
Qaida
ĠSUM
2019
Located
ĠMelee
orders
Ġmorphine
Ġboosted
Ġmustard
Ġinquire
unny
Ġinterpersonal
metic
Ġstresses
Ġlegend
si
ĠProvision
env
Ġnature
ĠVert
Ġlegitimately
Ġspl
ĠDSL
NO
Ġfreshwater
ĠCuriosity
ĠCitation
Ġelectrom
Anim
Ġ351
ĠPit
Ġpetitions
ottest
Ġaffluent
ħ
ĠMerge
ĠVar
Ġnarrowly
ei
ĠLR
Ġmanuals
ĠTrad
ĠPistons
ĠSultan
ĠOrders
ĠChess
Ġconfigure
ernaut
olan
Ġwool
'"
043
artist
Ġhunter
Ġlogistical
ĠHolding
Ġhalting
ĠStrike
Ġrestless
mediate
FN
Ġabandonment
Ġexcav
ĠNode
Ġfaculty
'll
ĠMask
INESS
Ġextras
ĠCFL
ĠLoan
ĠCompensation
Ġbites
Ġdop
Ġforbidden
Ġour
empl
elist
ĠZup
hee
Ġcreators
Ġneural
Ġrc
Ġfever
izards
Ġmutation
Ġscouting
lation
315
241
Ġfilthy
adows
ĠBasics
ĠVend
Ġinterpretations
Ġprojector
ĠExodus
Ġshield
ìĿ
Ġrecon
ĠNer
Ġ7
ĠWarwick
Ġfog
Ġmurderer
Ġdiscreet
Ġinterested
ĠEns
Ġclinical
Ġprotests
agged
Ġtabloid
Ġphoton
ĠRout
Ġarc
ĠDomestic
Vote
Target
ĠNormal
ĠRequirements
Ġfolds
45
Ġattributes
Ġannounces
131
ú
checking
ĠStrip
Ġfend
Ġperished
Ġthree
ĠLog
Ġpist
Ġlawmaker
ĠNicholson
Hack
Ġ<!--
irgin
Ġcurrent
Ġphenomenal
Ġresearchers
Ġhosting
Ġprecision
ĠKathryn
ĠHawking
oni
ĠQuick
ĠTyphoon
natureconservancy
ĠPascal
ĠFE
Ġkernel
Ġgravy
Ġ2020
Ġutilization
private
shot
Ġoffice
ĠCorps
Ġ145
Ġincreasingly
Ġprospects
Ġ228
Ġactress
Ġescalated
Ġthrilled
esides
Save
Ġè£ı
ĠBuddhist
ĠChat
ĠBaal
Ġ340
arist
Ġunt
lived
Ġming
Total
ampoo
angering
Ġ!=
Mus
['
Ġrub
RESULTS
Ġgamer
Ġairing
Ġunjust
inspired
Ġmerged
Ġmultip
ada
ĠCAN
reality
syn
Ġliable
ĠSchool
ĠMajesty
editor
Ġskipped
Ġshowing
ĠPatients
IF
Ġconstructing
SC
ious
Ġbeach
Ġguarded
ĠAleppo
Ġpreliminary
Ġqualification
graduate
aligned
olics
Ġtread
ĠLive
Ġdownturn
mort
Ġingested
fo
ĠCritical
ĠWah
ĠTrafford
Ġasks
Ġinherently
080
Ġembod
Ġwasted
Ġrejected
Ġgreens
Ġamygdala
ĠConfig
bec
bar
Ġproclaiming
ĠWall
Ġglasses
weak
ĠEnsure
438
bable
Ġapproval
Official
ĠJugg
Ġsupermarkets
ĠMIT
Ġrecognized
Ġ?)
erton
Ġbrut
ĠSeven
ĠUttar
Ġ1300
Ġfeats
ingly
ĠChapman
Ġswap
Ġrelegated
Ġdrug
+
ĠLennon
ĠTimeline
ĠGrimm
Simple
define
ersen
actually
Ġjavascript
etsy
Ġthreshold
Ġmediocre
Especially
Ġanytime
ĠYears
Â»
ĠRice
Ġfu
Ġribbon
ĠTav
Â°
Ġplotting
Po
Ġlord
Light
ĠJericho
Ġpoking
ĠPurpose
ashtra
iasm
background
Ġchair
Hist
ĠSir
pi
Ġscrimmage
App
remember
ew
agger
Death
Ġvirginity
amphetamine
Ġclad
Ġappetite
fits
ĠHilbert
otype
Ġunlocked
Similarly
ped
ĠBundes
Ġcircular
Ġiniti
urses
::::
ritten
ĠAbandon
Ġworkplaces
rox
Ġmetaphors
Sc
Ġdispens
Ġpuppet
bound
Ġexpensive
Ġdisgrace
Ġitself
ĠCAR
Ġexpresses
ummy
ĠButton
Ġemergence
282
Ġcontemplated
ĠZeal
Ġsinister
nants
vertisement
ĠPopular
16
ennial
usted
ĠINFORMATION
ĠGrateful
Ġas
ĠAndrew
Ġperspective
ĠOverse
Ġcontribut
stead
Ġcrap
ĠPep
ĠCommissioner
ĠBrooke
ĠEcuador
Ġmortals
Ġsecretive
Ġmomentarily
Mu
JS
Layer
Ġclarified
ĠElectricity
Ġamidst
Ġpublicized
rent
Ġimpending
Ġarrested
Ġacquiring
Golden
viron
OH
ĠPeterson
Ġfarmers
Ġintensely
ĠMolecular
ĠEndless
Ġpistol
ĠOpportunity
Ġlearns
Storm
random
near
Ġdiscovery
Ġmiscarriage
Ġweighing
ĠIke
pelling
OS
levard
productive
Ġhangar
Ġcongress
ĠPT
ĠWilde
andem
ti
icz
President
ained
307
eco
arcity
ĠGetty
ĠFeaturing
Invalid
tax
box
Ġoutreach
ctory
Ġrebuild
Ġstuffed
ĠAfrica
SR
Mos
031
Ġcarb
Ġrepeal
bill
McC
Ġhat
Ġ2050
Ġrejecting
nat
Ġoxy
ĠCalcul
erve
í
Ġcouldn
ĠFundamental
Ġfears
Texas
ĠLegal
ĠChem
vised
Ġsober
ĠMozilla
Ġacrylic
ĠLewis
Ġprosecution
ĠVoid
ĠIncrease
ĠThe
ĠRoyale
Ġroute
shr
brid
Ġopinion
Ġstru
ĠCoyotes
Ġdesk
Ġtough
ising
Ġoperates
Ġworkshop
ĠKaepernick
ĠGerman
Ġgubernatorial
Ġvegetable
Ġ6
safe
Ġhttp
Ġspecified
dream
ĠBreast
Ġkne
esthes
ĠRealms
ĠSlightly
Myth
ien
Ğ
Ġinscription
Ġonstage
Ġmultinational
Ġinternationally
Ġbuoy
Ġinfiltrated
ĠMaced
Ġdegrading
ĠBank
ĠPlain
Ġholder
dimensional
ĠDL
ĠEpiscopal
ellectual
Ġtransistor
Ġcollagen
Ġ];
Ġrenovated
hod
condition
Ġperform
Ġrequires
Ġreligion
ason
Ġaccelerator
esting
ules
Feb
ĠAOL
Ġloneliness
etically
Ġarea
ĠHalloween
Ġherald
Ġgarg
known
Ġmanifest
Ġsimilarities
Ġphotograph
Ġ244
eta
ĠWorm
Ts
ÑĮ
ked
Ġgovernor
Ġ**
Ġtelev
fake
Ġrupture
ĠAge
ĠSAR
ĠSte
Ġmarrying
Ġasync
Ġgovernment
Wal
ĠLeaders
Ġeru
Ġadditives
============
set
Ġthighs
ĠEnemies
opening
omew
ĠSupporters
cards
Ġbus
ĠBowser
Th
ĠAuburn
Ġfootprint
ĠMassive
bender
olphins
Ġscarcity
ĠPL
Truth
Ġpilot
Ġforeigner
Ġhurried
Ġmake
ĠWong
Ġtaxing
Ġraw
Ġoperative
Upon
ĠVeh
===
ĠDD
uner
ĠElias
Ġhumanitarian
Ġcoil
Ġpathogens
colm
Ġspin
Ġfortunes
ĠTexas
ĠKe
Ġyelling
Ġcoherent
Ġelegant
GRE
ĠPie
Ġprocessing
stocks
ĠUS
joy
ospel
Ġbul
Ġvoting
Ġundercut
png
Ġexhibit
Ġworlds
Ġshadow
ĠThirty
714
Mid
ĠWelcome
ĠRhodes
quote
Ġtipping
chu
Ġdissent
Ġcomprehension
ĠJessie
ĠApplic
Ġmore
ĠCastle
thin
ĠBook
rums
ĠVelocity
LT
Ġsubcommittee
Ġfluor
ĠDPS
Rock
Ġgraph
another
ĠDetective
Ġcost
Ġdru
Ġinvoked
essa
ĠHarrington
chan
Ġfiring
ching
Ġreminding
ĠRough
Express
Ġends
ĠNEC
610
ĠGrassley
oshi
Ġlamp
unky
ogo
iona
Ġaltering
ĠDoing
Ġling
Ġplac
Ġaggressive
udd
Ġinexpensive
Ġsystem
prep
0100
ĠGors
ĠSalt
Ġjug
ivation
pay
Ġwhims
Ġtyre
Ġslopes
Ġjuggling
ĠAppendix
ailable
ĠLoop
ĠAuthors
Ġdistinguishes
codes
Ġinsistence
ciples
Ġ384
Ġspecs
ĊĊ
Ġcontaining
ĠValve
play
Ġprojecting
Ġrefining
aspx
ç·
ĠFar
ĠBelow
ĠPLUS
Ġsells
ĠPete
Ġsin
Ġ<<
Ghost
Florida
Ġarrest
Ġmi
Ġheaviest
Ġsecuring
bott
M
Ġther
overs
Ġwidespread
ĠAlban
ston
ĠKushner
Ġvill
ĠBedford
ĠTrave
ĠSPI
++++++++++++++++
ĠUEFA
Ġdisemb
Ġfram
Ġreference
Ġusefulness
ĠPikachu
Ġemulation
ILLE
word
Ġcotton
update
ĠCompetition
ĠForestry
regation
ĠÄ
Ġfacilit
Ġswall
repair
ĠMariners
Ġcounting
prop
ĠBrend
Ġ1999
Updated
Ġexile
ĠAffairs
ĠImplementation
Ġnobility
ĠCreep
Ġprol
Ġintensity
otide
Ġbackend
ĠMIDI
umbled
assets
Ġshareholder
ĠAirl
ĠDusk
array
Ġalways
ĠCurtis
d
ĠEg
Ġtransitioning
Ġgrazing
monitor
morph
Ġfullback
Ġconfused
Ġseminars
Ġrunners
ULAR
ĠDelta
rifice
]).
Ġflagged
ĠHayward
Ġlanded
ĠTill
ĠCollider
Ear
ĠSorceress
ãĥ©ãĥ³
Ġnonetheless
Ġcurrency
ayer
Ġbrakes
Ġextinguished
Ġriver
Ġtroops
Ġdocument
Ġ17
ĠBill
Ġreiterated
Ġcancel
dependent
ĠNot
anson
Ġreimbursement
ĠCarson
Ġchop
Ġdenouncing
isition
DES
Tro
Clearly
Ġtrailing
rieving
quickShipAvailable
TEXT
osure
iov
Ġquotation
early
UN
Ġinterpre
cpp
agin
Ġtravelers
Ġsubscription
Ġmonuments
Ġhepatitis
Ġsides
ĠisEnabled
Ġphys
inf
ĠDeus
ĠCairo
ĠMILL
ĠHT
ĠJoin
imester
ore
ĠKell
udging
IVER
iation
ĠRob
ĠTories
Ġrecommending
EN
Ġdepict
329
AH
ĠBahamas
Ġprotocol
ĠWass
ĠAunt
Ġrelationship
Ġexam
jobs
ĠPatriot
453
Ġdistinguished
ĠSU
ĠFaces
Ġforming
ĠUT
986
ĠAff
Ġturnout
Ġcaptains
ĠMald
ĠBloody
ĠAlright
Simply
Ġimportance
Ġgenerous
Japan
Single
Ġbrill
Ġsouthwestern
Ġpainstaking
Ġbranch
Ġwide
Ġanxious
ĠDamascus
Ġgle
jo
Ġtouted
Ġalarms
ĠEXT
ĠDarwin
Ġparasitic
Async
genre
Ġobjectives
Royal
Cr
cial
actions
Ġconstitutes
ĠDar
Ġexposures
Administ
ĠTrust
Ġsorcerer
Ġcush
want
Ġparameter
ified
Click
asp
Ġcomic
ĠConrad
ĠNinth
ĠMormons
Ġsettled
ĠGrim
imar
ĠSparks
atile
ĠException
Ġtall
Ġannounced
ĠJae
Ġpopulation
Ġinhabited
Ġquir
icably
ĠTravel
Ġhostility
ĠSmoking
Ġbought
Ġvalidated
ĠConstruct
Ġcontinuum
ĠBag
ĠAssist
Ġominous
Church
NOT
Ġadip
Ġcooperation
ĠWein
Ġmun
BUT
ĠTrilogy
Ġplun
Ġcy
unch
isky
Ġorganic
loading
Ġevangel
needs
Ġ146
LESS
Ġerad
ĠAUD
didn
ĠMales
ĠAbyssal
Ġdeployments
Inv
ĠYet
EST
ebook
Ġwarmth
ĠclichÃ©
ennis
male
ĠTray
icas
base
inness
ront
Ġapplication
ĠPsal
Ġwrest
ĠValues
ĠSend
intuitive
Ġecc
selection
ĠPist
ĠPennsylvania
ensis
Ġmess
Ġhacked
Ġsocks
Ġelectrons
Ġmarketplace
please
umbing
Ġregime
ĠLift
ĠIndust
AMY
Ġnewcom
Ġreporters
Ġbureaucrats
ĠTs
ĠCognitive
iencies
ald
Ġ311
Ġstare
Ġrevolt
Ġcuriosity
Ġpronounce
ĠApprentice
ĠTatt
ç
kn
ĠButterfly
Ġ279
fully
inks
Ġ204
Ġindividuality
ĠZack
opez
ĠDinosaur
1016
pill
ĺ
Ġmass
centric
ĠHurt
izing
ĠSIG
ĠNebula
Ġstrategy
Ġ2100
ĠDoyle
ĠBBC
013
ĠShoals
skinned
================================
ĠCullen
Ġvil
Ġbolster
ided
Ġventilation
ĠAddiction
ĠPeb
Ġcrate
Ġemitted
ĠLDL
ĠSha
ĠHIGH
Ġtokens
Other
orsi
ivari
osen
Ġheartbreaking
Ġquart
Ġextracted
ĠDeutsche
ĠEstate
Ġpattern
ĠCycl
Ġimpede
athering
Craig
iddles
ĠKyoto
quarters
ĠDisaster
Ġamb
ĠFusion
ĠIDF
ĠAllen
ĠSharks
Ġinclusion
Ġexpenditures
Ġkindly
ĠGER
Ġheresy
Tool
Ġflirt
Ġweap
Ġspill
ine
Ġcrystall
Ġthreaten
Mot
Ġclinicians
ptive
Ġpand
ĠSpectre
Ġknowingly
Ġdeveloping
ĠCecil
Ġ443
Ġoutfit
ĠMickey
union
boarding
Ġgates
Ġtour
hom
park
does
Ġmultim
iph
Ġvariety
Ġpurs
Ġthinner
Ġphilosophical
ĠReact
Ġcran
ĠStark
ĠÂ§
580
ĠKeyboard
ĠMew
Jake
Thankfully
ise
Ġtransaction
ĠBach
Ġformat
ĠCurse
Ġdog
ĠConscious
Magikarp
ĠTrent
Ġspacecraft
rob
Ġresh
uding
Ġtricky
Ġexploiting
ĠEzekiel
Ġsquarely
ĠPersonality
<?
Coming
address
ĠLAT
Ġdwindling
ĠHopefully
ioxide
ĠMayor
Ġcasts
Ġpoke
Ġsophistication
Ġtrapping
ĠProm
ĠCommittee
Ġfitted
Ġstatues
Ġpessim
forest
Ġseals
Db
//
Ġcharact
Ġimaging
mins
Ġsuperst
Ġ373
Ġcherish
ĠMaver
Ġmarch
Ġsharing
football
ĠAthletics
ĠLower
Device
'>
ĠItemLevel
Ġstumbled
oddy
ĠPelicans
ĠEug
escape
steen
ĠLoans
ĠUse
Ġ'(
Ġauthored
Lower
ĠWes
Ġunfit
Ġfavor
ĠStudies
ĠOECD
ãģĹ
Ġfollowers
ĠTIM
Ġoverturned
RAM
tn
1
641
rotein
ozy
Ġforegoing
Ġears
Ġavoidance
ĠInvestor
osit
Ġfist
ĠRespect
Ġchamber
ĠHanson
Ġremnants
ĠPOLIT
cellaneous
6
Ġcropped
Ġeth
keye
ream
pocket
Ġprevented
Ġfinals
Ġcolony
FD
Ġhoop
Ġupper
ĠMcKenzie
Ġsteering
ĠSpiral
Ġgodd
Ġinsecure
ocument
nexus
omach
Ġhemor
ĠPew
Ġgiven
oggles
ernandez
Ġwaiting
Ġoffend
39
Ġphosphate
txt
metry
ĠGael
ithmetic
Ġ07
ĠSingle
ĠRomo
ĠTorch
GL
ĠArgentina
Ġbewild
external
Ġcached
Ġcaval
ĠWalton
told
oggle
say
Ġfurther
ĠSouthampton
íķ
psy
Ġchanges
ĠUpdate
ĠCancel
Ġeviction
219
Ġherb
std
Ġdwarf
massive
ichita
Ġ});
ĠABE
bred
Rem
The
ĠUganda
Ġcoordin
Ġpres
Ġinstall
manent
ĠXY
Methods
ĠBR
ĠMarshall
uki
wark
Ġbreeze
ĠHik
Ġacceptance
ĠUmb
opter
Ġsubstantial
ĠObservatory
ynam
Ġanatomical
ĠE
Ġairlines
Ġcracked
Ġflurry
Ġart
ĠHoy
Ġmonkey
Ġprogresses
Ġsymptom
Cro
Ġcemetery
Ġdisobedience
Ġmarried
ublic
exit
ĠGust
Mask
ash
ilitarian
]}
DD
Ġinvestigated
Ġfruits
ĠSanders
Ġfer
ĠWatson
ĠReson
ĠGrounds
itzerland
icter
iak
Ġmechanisms
Ġsounds
Ġsocio
Ġlearners
ĠJudaism
Ġabyss
winning
Ġimmoral
pleasant
agues
Proxy
tten
oren
ĠRifle
urg
riages
Ġneck
ĠGlobal
Ġafraid
ential
Usually
Ġslashed
ples
ĠMercer
Ġoutlining
ĠMadrid
ĠImmediately
Ġaudio
ĠCrossRef
Ġloudspe
owsky
pp
ishop
itially
Vari
ĠStyles
ĠDepths
Ġrebutt
etics
pard
uk
Ġdub
ĠMis
786
affe
Ġnecessarily
Ġinfected
viation
wk
ĠSuc
ĠStarter
ĠFunctional
Ġcaut
Ġsemantics
ĠBradford
ĠGuid
Ġmatching
blade
Ġlemon
iever
Indiana
ĠLyft
phant
ulk
445
Ġ1886
Ġunfold
conserv
Ġflowed
ĠGL
oris
Ġexceed
ĠWizard
ĠMissions
Fri
Ġinaccurate
Ġearliest
Ġresear
Ġradio
ĠAmazing
Ġdign
Ġrescind
doctoral
fest
Ġintruder
Ġflux
Ġpreventing
ĠLink
Ġhinges
obal
endale
screen
WW
ĠHarding
Activ
Ġprecip
Ġpollen
ĠEstablishment
Ġpissed
Ġframe
Ġcannabinoids
Ġenthusi
Ġ160
Ġpersuaded
ina
Ġstaple
Ġladies
ĠPoverty
iping
rence
Thread
Ġunbeliev
ĠParad
ĠJudgment
ĠMargaret
iam
Ġ126
ĠrÃ©
fter
ĠBren
Ġlearn
Ġextending
Ġprofession
oust
Ġmism
Ġseamlessly
ĠGob
ĠLyme
Ask
versely
ĠPROV
Ġindemn
Ġfourteen
Ġdefinition
Ġla
ĠSloan
Ġthumbs
asts
Ġpercentages
Ġmigraine
missive
ĠXin
ĠTrue
Ġgap
utan
ĠAX
Ġflavored
Ġcomposite
ĠTheme
bery
opian
Ġsque
Ġshowers
ĠMaxim
Ġstares
Ġrecourse
Susan
Ġfuels
ĠWordPress
ogg
Ġput
Ã¡n
ire
Ġlevel
Ġstatistical
Ġgraphene
Ġkn
Ġdrones
Ġsitu
ĠTowards
Ġcertific
Mary
Ġcaucuses
elly
Ġ1969
ĠBaby
ĠSecure
Ġfactors
feel
ĠRichmond
hunt
ĠForbes
ukemia
Ġsys
ĠVision
Ġindeed
ĠKeen
TB
ĠEva
eu
Ġanew
ĠRoku
Ġfolder
ĠHenderson
Ġlimitation
Ġmaze
ĠGothic
Ġintend
Ġfinance
olescent
ĠEVER
Ġdisguised
ĠG
ĠLima
gmail
Perfect
Ġtheater
ĠMountain
eria
ĠFatal
Ġantagonists
Ġhurts
Ġreligions
axies
connected
FUN
Ġcompensation
fe
Ġfoliage
ĠEating
Wra
ĠTopics
bars
ĠSyndicate
Ġjoy
Ġunrealistic
Comments
Ġreq
quire
éĹ
Ġprocurement
ĠGarland
Ġcook
wolf
attribute
Ġfolly
âĹ¼
hawk
ĠFamily
Ġadop
!,
ĠQuÃ©
Ġbrilliantly
Ġgaze
ĠHuntington
ĠTrace
Ġchocolate
phil
ĠCohen
ĠESC
osate
Ġinert
ĠFork
rate
ĠBatt
Ġvict
velop
url
Ġgearing
ĠPat
Ġdrawer
Ġglide
Ġrepresentative
ĠSpecial
Äĵ
ĠGenetic
(
ĠSim
Be
Ġdemographics
Ġbatting
Ġadequ
Ġexhilar
::::::::
ĠProject
Ġdamp
Ġheart
ĠÂ¯
Ġfireplace
ĠClose
adal
Ġdietary
ĠMedicaid
Ġlowered
Authorities
ĠBlind
ĠHeader
ĠTower
Ġreck
Ġcp
Ġshaman
ĠJacobs
Ġtears
Quote
Ġseem
ĠJude
ĠZel
ĠMans
Builder
ideon
ĠNCT
ĠStraight
antasy
Ġinsect
Ġaxle
nesia
Ġpreset
Ġinstances
ĠComputer
Ġpestic
Ġcertificate
Ġdeploy
Ġoptical
ĠSever
hematically
Earth
rance
established
ĠSnowden
ruff
Ġtracing
ãĤ¶
ĠMurphy
ãĥīãĥ©ãĤ´ãĥ³
uther
boa
Ġsne
740
ĠWIN
Ġfights
lings
Ġevil
ĠAges
Ġhairc
Ġpetroleum
Ġlobbying
ibrarian
Ġhormonal
iliar
Ġquestions
ĠCash
Ġcortex
Ġwearer
ĠRas
ĠBin
Ġpetertodd
ĠEpic
ĠAd
Ġdysfunctional
Ġsurvey
Ġwaves
ĠCompany
pl
Ġdemo
Ġengagements
Ġundead
Ġattack
Ġmisunderstand
Ġdust
Ġtempo
ideos
?)
DEM
Ġdesignated
Ġeuros
Mbps
Ġsatir
ĠBeverly
Stop
holders
Ġbilateral
Ġcz
BO
Ġhero
Ġcongregation
ĠEx
ĠEvans
adian
ĠDenver
ivist
ĠCOMMUN
Ġsurroundings
ĠDominic
Ġindisc
swer
ĠMale
ĠPhant
omen
Ġstudied
approved
ĠEverton
NAT
Ġconserve
Ġtext
Ġsalvation
Ġnerv
ĠGravity
ĠApost
Ġsweep
ĠKali
feat
amon
Ġprimed
venture
cot
kw
G
hn
ĠFram
Bed
ĠGaz
Ġpricing
Ġparting
ĠâĪ¼
Ġoccult
Ġwithin
ĠUtah
ĠParticularly
µ
Ġfallout
ens
ĠAnything
ĠADS
Ġmagician
SU
ĠSagan
Woman
ĠContributions
Ġtremend
ĠDexter
Ġinfo
Ġbits
ĠYorkers
Ġshotguns
iegel
ĠAbuse
iltration
Ġswitches
thinkable
ĠBlog
hler
Ġ1902
othe
Ġongoing
Ġduring
ĠMerkel
Ġnotably
HR
Ġspray
Market
ĠAsheville
IVERS
Ġnig
Classic
Ġrecommendation
Ġsurvive
Ġindicators
bol
ĠKKK
Ġtroubling
ĠâĢĭ
Ġan
Ġselect
serving
Ġcinnamon
Ġgrapp
Ġrecord
Ġinvolvement
ĠWenger
Ġreceiver
ĠCand
QL
original
480
]+
azard
Ġbucks
Ġdex
avour
Ġphilos
Ġessays
ĠChinatown
youtu
sy
048
ccording
FF
ĠCoal
ĠNull
YN
Ġgenital
uit
ĠYi
Ġhandwritten
Ġisn
ĠCon
Ġrely
TG
ILL
Ġminimizing
Ġpartake
ĠRemastered
Ġeconomics
Ġpremature
NING
Ġ85
[
Ġcorps
Ġnegotiator
Ġoverth
Ġappease
Ġmaterial
Ġtub
Ġlobe
"[
><
Ġassaulting
EU
KO
Ġadding
angle
EMS
FI
Ġoutweigh
ĠATK
ĠVie
Ġdismay
Ġmurderous
ĠCrane
emo
wage
ĠRooms
Ġbirds
Ġretired
bably
ĠLion
heng
abiding
Ġcharity
Ġbreak
anical
whether
ĠMattis
Ġpaternal
ĠDis
523
brids
Ġdiner
ãģ®ç
mpeg
Ġcovert
store
ĠWiley
usr
572
asured
Ġpatrol
Required
ĠGenesis
Ġaer
ĠRussell
fil
ĠOEM
ĠWheel
374
widget
ĠVerd
Ġconsidering
pot
ppy
ĠPanic
Ġwarmer
Shares
aylor
Ġcorrelated
èĪ
Ġropes
Ġprevailing
Ġkeen
471
Â¯Â¯
Ġdest
jit
Lord
tg
endum
ĠExtensions
unci
Ġsupplied
ĠHell
human
Ġrenewables
ss
ĠKo
Ġwhistleblower
jan
linear
sounding
ĠCITY
Ġalgorithms
Ġharder
Ġprohibit
Ġsolicit
Ġsmugglers
705
Ġdistinction
ocative
balanced
Ġcherished
ĠCalories
ĠHendricks
ĠRune
ĠJasper
ĠPrevent
ĠBirch
Georg
Ġcommission
ĠAri
Ġdiv
Ġappeals
ince
OUS
Ġmedication
ĠPros
escent
FFER
stanbul
Ġeroded
ĠBob
ruits
Ġprey
WARN
Ġeditor
Ġinduced
Ġspider
OST
ĠSensor
UTERS
ĠTobacco
Ġnetworks
Ġfellows
Ġinstitute
Ġanother
Ġhearts
Ġprototyp
sets
ĠLeeds
ĠFallen
ower
Ġtextbooks
Ġcamer
ĠSina
Ġwhis
Ġexplicitly
apest
Ġflavor
Ġ0000
Reddit
ux
Ġire
ĠBrick
ĠComb
ĠSubaru
Ġelite
Ġsunscreen
Ġcharg
aine
Jack
ription
Ġlumin
ears
Ali
Ġracer
PN
Released
ĠSab
Ġstrengthens
agall
Previously
Ġsix
ĠRex
Ġpreferably
Marie
ueless
Ġswitching
Ġharness
Ġsteroid
ĠDeter
Ġviol
Ġ422
Ġdefence
storms
ulating
ĠXiaomi
Ġrecycled
ĠAway
nz
*
Ġrout
Ġ338
Network
Ġsymp
iera
posts
ĠBing
violence
Ġminimalist
Semitism
anty
stice
Ire
pkg
ĠHole
Ġaccuses
nature
ĠCosta
Creating
ĠRepair
ĠCHO
ĠAlchemist
imeter
ĠCoff
nard
Rew
Ġstyles
Ġimpacts
ipping
ĠNazi
Ġtract
kell
518
ĠTemplar
viously
Ġrepository
Ġpizza
uer
asper
Ġsound
ĠWalmart
ĠFun
770
Ġinconvenient
HAEL
Ġdiscipl
Ġkind
ĠLund
ulus
Ġrep
VILLE
Ġbackground
ĠAirlines
spot
ISA
eny
Ġpierced
iless
Ġtr
Ġhistoric
Ġbuttons
language
ople
Ġly
Ġtwilight
Ġstruggling
Ġbreaking
ĠTarget
ĠHers
Ġ91
Ġperforming
reading
ras
oler
Ġevangelicals
1976
ĠBrowne
tarian
ĠReve
fusc
Ġ[*
Having
ĠRider
irling
urally
Ġozone
Ġ240
Ġmedi
ĠLeah
Ġadmired
Ġflav
Ġwhiskey
Ġcommons
raltar
Ġãĥ
Frameworks
icked
ĠCarl
Ġmentally
ĠAust
product
ĠCups
ĠComput
:"
Ġagencies
Ġprofiles
ugh
Ġnext
ters
Ġharmless
Ġrevolver
onew
Ġ~/
ĠBellev
.,"
Ac
ĠSpear
245
Ġmystic
ĠLocked
ssh
Ġ2006
Ġpractice
ĠLiverpool
ET
Ġinjection
Ġdilig
ĠOg
inos
ĠUsage
Ġcram
ù
Ġimproper
Graham
Ġred
ĠMeet
ĠHawaiian
Ġdenied
Ġtyped
staking
Ġimpress
ĠHead
NET
ĠVic
Ġoutpatient
always
460
ĠTOP
putable
Ġprism
Comp
ñ
ĠChong
me
Ġsolitude
Desk
Ġsiblings
opsy
ãĢĲ
Ġborderline
ĠSpl
Ġrelations
tim
ĠRik
Ġsummer
Ġtre
Mad
Ġsolving
ret
Ġmagnitude
Ġgruesome
Ġsnippet
ĠIbid
ĠSri
Ġdevelops
foo
Ġdiminished
ĠPuzzles
Ġmillionaires
Ġmaintained
ĠLect
Ġdepressing
Ġproteins
Ġoffspring
ictions
Ġprofile
Ġdoctr
ĠGork
ĠLamb
Ġritual
Ġdifferentiation
Ġoffered
ĠTak
Ġnasty
ĠSupported
etsu
Ġpitch
Ġslot
ĠElectric
349
Ġskyrocket
ĠDictionary
Ġexcel
Ide
Enable
Ġelectoral
Ġcouncils
ĠHai
Ġidentifying
Ġgoverns
ĠSergei
ĠDA
Ġtransformer
ĠZuckerberg
Ġgelatin
»Ĵ
Ġsweets
chron
itutional
ĠSpanish
inc
Ġtariffs
Ġrepatri
Ġrejuven
Ġdrives
oom
ĠOman
ĠSpoon
ĠArsenal
ĠBond
Refer
layout
Ġstand
Ě
ĠCourts
Ġfray
ĠMcF
ĠHeart
ĠSurprise
Ġunlocking
Ġ427
Ġinstantly
Ġ($)
Ġopposed
ĠPapua
borgh
Ġopened
Ġmasses
Ġdos
Ġcm
Ġcausal
Ġsubsidiary
ĠCollections
Ġminimized
ĠShant
ĠÂ©
Ġeconomic
Ġ31
host
ĠElder
ĠBurst
EMOTE
Ġstrokes
Ġtransmission
available
racist
ĠRR
Ġsav
pic
conservative
Ġingenuity
Ġflora
ĠAlexis
Kill
ĠWARN
request
ony
ĠPlants
Ġtriggers
Rank
utics
itated
aces
Ġweb
ĠMarcel
Ġthroughput
raphic
Ġbeliefs
eto
chuk
Ġtert
Ġ698
Ġsplash
Ġpassages
grain
ĠPlato
ategy
ĠDawson
rators
Ġrobbing
Ġcup
Ġboarded
ĠCassandra
ĠEquipment
Fed
......
47
Ġjournals
ĠexternalToEVAOnly
Ġbrings
Ġemerge
ĠAngola
ĠThomas
Ġadvantage
Ġtart
hedral
Ġmodifiers
Ġviewpoint
Ġuncomfortable
Ġjson
Ġlocals
ĠVs
Ġearnest
Ġimproperly
ĠGENERAL
ailed
950
March
Ġgrew
ĠHarvey
ploma
Ġvers
ĠPlace
Ġstature
Ġanticipate
ĠYanukovych
ĠBDS
AK
akra
Ġskies
Window
ĠConnect
Ġcardboard
thritis
auld
!?
ĠSOU
ĠIntellectual
ĠMartian
ĠEmployees
ĠPosts
Ġleukemia
ĠOakland
Ġparadigm
ĠFant
Ġnascent
antry
Ġimpossibility
Ġaccommodations
Fre
ĠRS
ĠRiley
Ky
ĠMK
Ġbowl
ĠUncommon
ysc
Cry
ĠKus
Ġflatt
Ġendogenous
hips
oral
eteenth
ives
ĠSgt
Ġloot
Ġfinancial
Ġglowing
Opening
college
loving
Ġheader
Ġcancellation
mer
Ġexpressions
ĠWhats
Ġdared
Try
ĠHELL
Ġinject
ĠRath
Ġkb
Ġ&&
irlf
displayText
Ġuncertain
Ġpermitted
ĠAppro
Ġeg
Ġdiced
ĠPCI
endon
embedreportprint
responsible
ghost
Lake
ĠNem
ĠVisitors
ĠLank
Congratulations
orah
ĠRooney
ĠClimate
Ġautobi
brates
ĠðŁĻĤ
ppers
Ġpediatric
pas
Ġsynchron
query
suggest
Ġexha
Mag
Ġhail
Ġdunno
Answer
Rect
Ġacute
Ġpreached
escription
ence
Ġleve
Ġdepicted
ĠPens
193
ĠFirearms
Ġpatriarchy
ĠClarence
find
luent
ĠFlesh
Ġattractive
âĻ
ĠBroadcast
Ġfury
jing
Ġ-=
Ġbelonging
Ġdeficits
setting
ORPG
enson
ĠCait
Ġbugs
Ġassistants
Ġimpe
Ġhosp
ct
ĠGarrison
Ġlowly
ĠJa
ster
Ġintegral
Ġperenn
Ì
Ġmountain
StreamerBot
Ġseparate
Ġimmense
puted
Ġprobing
Ġpublicly
ĠPrinting
ĠCredits
ĠInsp
Ġwastes
Ġdug
anking
Ġproud
Ġrulings
topia
payment
Clinton
Ġshells
Ġninety
Ġequival
Ġshipments
ĠSea
ĠBab
Ġplacement
kie
ĠUID
issan
ĠCorrectional
Ġrevocation
ĠWyn
mit
ĠHolmes
ĠWhether
ĠNest
standard
ĠNames
Words
ĠCosmic
akespeare
Recipe
Quantity
Ġenthusiast
wal
Ġmisconceptions
ĠDartmouth
ĠEighth
irc
ĠPerhaps
abad
otherapy
14
Construction
Ġinstructions
Ġmaps
.ï¿½
oul
ĠHorses
Hal
Phone
Ġ1993
Ġfallacy
Ġrook
toggle
ĠLock
Ġgrieving
11
rosse
ĠCrack
Ġexclude
495
ĠChevy
ĠLo
Ġtraditionally
Ġcrowd
Ġbundled
Ġexcavation
ĠLust
Ġcollar
LECT
hid
Ġclosely
Ġamp
Ġliabilities
Ġwicked
Ġfret
Ġlingu
Cass
ĠHunts
ĠSexual
Ġfavorites
Ġremarkably
threat
Ġov
Ġqueues
ast
Ġkicks
Ter
District
Ġanarchy
Ġrecept
Ġunman
Pot
ortium
lev
Ġphenomenon
Either
Ġwelf
Ġrope
ĠInn
imb
Ġvisuals
ĠAttacks
ĠLDS
Ġbest
Ġub
ĠInterestingly
Is
ĠPatt
ĠIDE
ĠImmigration
Ġcreatively
>]
Ġmassive
Ã©e
ĠCooke
Ġstress
Ġpandemonium
ĠDynam
Ġinst
ĠBi
Ġsuggests
ibia
ournals
Res
ãĤ«
Ġnose
Ġcontinuous
beck
Ġleadership
Spons
Ġresidues
[]
ody
ĠBoots
________
ĠMajor
unt
Ġanniversary
ĠLich
bringer
Ġpolled
X
Ġraising
Ġrisks
Ġor
ĠNicholas
Ġaired
ocrats
ĠNorwegian
792
ĠGoods
ĠConditions
ĠWaves
Ġspurious
ech
Ġhoused
Ġ22
Ġthug
Ġinflicted
Hours
ĠENTER
Ġconsole
Ġprecisely
Ġexhibitions
Ġfollow
×Ķ
ĠCarib
Ġscreenings
arel
culation
ĠBermuda
Ġwrinkles
obo
Ġoverse
ĠEasy
Ġcustomization
Ġfinalized
ses
Ġembro
crypt
Ġrac
impro
Ġgenerations
iment
ĠRodrig
ĠShift
astics
France
Ġimag
Ġpet
wang
leneck
169
mm
ĠRubio
è
essing
Ġattribute
ĠRET
Ġevolve
ĠSard
Ġenv
Ġaugmented
ĠNeil
Getty
Ġchancellor
ĠBruno
ĠDamian
ĠChern
ĠSusp
ameron
ection
Ġjournalistic
Ġsinger
ĠBind
ĠIcar
Ġlair
antam
bs
icons
DCS
ĠDelete
acha
ĠElys
Spr
ĠKul
ĠChennai
vity
ĠPurdue
Ġnominee
Ġcomparative
Ġ354
Ġmetabol
HOME
Ġredirected
assetsadobe
Ġmedial
owl
Ġinvolved
ĠiCloud
Ġlivestock
ĠPing
ija
ĠSuggest
Ġfrench
ãĢı
Ġsticky
Ġcompanions
ĠLack
Ġenterprise
app
isc
Ġmorale
ĠAgric
Moore
ĠBauer
ĠDOE
OAD
AC
ĠPenguins
apixel
ĠEas
Ġ398
Ġexercised
Ġ287
boards
ĠLines
Ġgoat
+,
grave
ĠPremiership
Ġviewing
ima
pure
Ġedition
ĠEquity
Ġfriendly
wat
ĠLV
ĠCoC
Missing
Ġhospitalized
Ġbond
Ġvegetation
ĠLikely
izable
Ġsense
Ġrelied
ĠParkway
Ġliver
Ġcollegiate
ritz
ĠSpencer
ĠSNAP
Ġcorpses
Ġmobilization
Ġgenerators
Ġincl
ĠMandal
Ġspawned
Ġmorphed
getic
Ġformatted
Ġrooftop
Ġsession
ogeneity
Ġarmed
Ġblitz
Ġwinter
washing
ü
Ġpasses
*.
ĠClan
ĠNum
SAN
2500
Ġartificial
Ġsyll
Ġreserves
utz
Ġofficially
ĠBerkeley
dict
California
intention
itud
Prior
Ġserpent
Ġoverwhel
naissance
tan
utorial
VT
tail
Ġcondom
Ġneither
ĠSafety
ĠFBI
Ġyelled
ĠGloria
225
ology
ĠBubble
ches
Ġsegments
ĠBio
rice
venth
Ġgrasping
ĠMilan
inatory
Whereas
Ġsoft
Ġthinly
Ġrational
ethyl
Ġcontrasted
Ġtrue
adr
EY
Ġghost
ĠShad
ĠMcKay
rising
ĠPledge
Ġhuh
Ġinsurg
Ġtbsp
ĠLunar
CPU
ĠKurt
Ġinjured
Â©
beans
ulty
Ġskin
ensibly
Ġé
lie
().
Ġinhib
oy
ĠCOMPLE
bot
VALUE
Ġdrowning
Ġcrus
ĠOrange
adelphia
ĠUnfortunately
Ġvet
integ
ĠHuck
bilt
Ġexams
Ġfiscal
511
Ġsizing
Ġprotestors
Ġdisclosed
ĠSweet
ĠPavilion
ĠUPS
urd
articles
Ġimproves
igators
surv
Ġarsen
ĠFulton
Ġ161
hani
713
Ġrights
people
Ġweddings
Ġsovere
ĠNF
ĠMarion
aretz
Ġgrass
Ġsurv
ĠConsent
Ġcubes
????
Ġserves
ĠVik
ĠGateway
met
ĠEthiopia
ĠNeal
eker
nington
Ġrighteousness
Ġgrows
Ġgenus
Ġmetallic
Ġstored
oad
ĠSabbath
icularly
Ġà¨
flame
ĠParticipant
credit
ĠPLoS
Ġ359
Ġprinciples
YS
assment
503
medium
etry
PsyNetMessage
ĠParties
Ã³
Ġadmit
ĠGROUP
Ġorbits
Ġpics
Ġglean
ĠReset
works
INGTON
Ġalarmed
ĠBulgarian
Ġtestosterone
Ġdisturbances
oooooooo
mot
ĠRen
Ġimposed
Ġtowed
Ġtact
Ġinco
Ġintended
Ġdealings
Ġenvision
Ġsuperhuman
ĠIT
ĠSDK
ĠRemoval
angan
Ġcash
ĠMonica
ĠMarx
Ġmileage
Ġmethod
consumer
Ġburner
Ġmuzzle
Lastly
ĠStafford
ı
Ġfence
Ġbanquet
ĠFranco
safety
Ġ1927
iola
Ġdiscour
Ġgeographical
ent
ĠWendy
icio
Ġcontam
Ġspiritually
Ġsomewhat
inen
Ġbl
Ġepic
Ġkeyword
Â·Â·
idd
ĠPenguin
Ġdividends
Ġtimet
Ġmorph
Ġtransgress
Ġhome
Ġshowcases
Ġdeceived
--------------
uro
Ġfulfilling
554
Ġcharcoal
ymm
ĠKarn
ĠSupporting
azz
012
ĠReincarnated
Ġplatforms
ĠAction
licks
Ġjugg
Ġplantations
Ġtechnologically
Ġrestricts
Ġservants
809
Ġbogus
Ġshorten
Ġmen
Ġ263
Ġtours
ĠWy
Ġrealise
Ġreservation
Trans
Ġ--------------------------------
Ġviability
Ġteaspoon
Ġtransact
oct
pattern
Ġsnaps
ĠFran
Ġmelt
ONE
ĠVit
Ġslight
},"
Ġbrief
Ġsuccumb
Ġhumidity
Ġbanking
Ġru
Ġpronoun
ĠSummer
Ġfunny
Ġdst
ĠHollow
Ġthrough
Ġ};
Ġsovereignty
weapons
Ġdebug
290
ĠRift
Ġengines
Ġ"""
ĠIncreased
jug
Ġoutstanding
Ġrecovered
Ġcondoms
Auto
ĠMonsanto
Ġcradle
[...]
